{
  "version": "1.0",
  "truncation": null,
  "padding": null,
  "added_tokens": [
    {
      "id": 0,
      "content": "<PAD>",
      "single_word": false,
      "lstrip": false,
      "rstrip": false,
      "normalized": false,
      "special": true
    },
    {
      "id": 1,
      "content": "<BOS>",
      "single_word": false,
      "lstrip": false,
      "rstrip": false,
      "normalized": false,
      "special": true
    },
    {
      "id": 2,
      "content": "<EOS>",
      "single_word": false,
      "lstrip": false,
      "rstrip": false,
      "normalized": false,
      "special": true
    },
    {
      "id": 3,
      "content": "<UNK>",
      "single_word": false,
      "lstrip": false,
      "rstrip": false,
      "normalized": false,
      "special": true
    },
    {
      "id": 4,
      "content": "<USER>",
      "single_word": false,
      "lstrip": false,
      "rstrip": false,
      "normalized": false,
      "special": true
    },
    {
      "id": 5,
      "content": "<ASSISTANT>",
      "single_word": false,
      "lstrip": false,
      "rstrip": false,
      "normalized": false,
      "special": true
    }
  ],
  "normalizer": {
    "type": "NFC"
  },
  "pre_tokenizer": {
    "type": "ByteLevel",
    "add_prefix_space": false,
    "trim_offsets": true,
    "use_regex": true
  },
  "post_processor": null,
  "decoder": {
    "type": "ByteLevel",
    "add_prefix_space": true,
    "trim_offsets": true,
    "use_regex": true
  },
  "model": {
    "type": "BPE",
    "dropout": null,
    "unk_token": "<UNK>",
    "continuing_subword_prefix": null,
    "end_of_word_suffix": null,
    "fuse_unk": false,
    "byte_fallback": false,
    "ignore_merges": false,
    "vocab": {
      "<PAD>": 0,
      "<BOS>": 1,
      "<EOS>": 2,
      "<UNK>": 3,
      "<USER>": 4,
      "<ASSISTANT>": 5,
      "!": 6,
      "\"": 7,
      "#": 8,
      "$": 9,
      "%": 10,
      "&": 11,
      "'": 12,
      "(": 13,
      ")": 14,
      "*": 15,
      "+": 16,
      ",": 17,
      "-": 18,
      ".": 19,
      "/": 20,
      "0": 21,
      "1": 22,
      "2": 23,
      "3": 24,
      "4": 25,
      "5": 26,
      "6": 27,
      "7": 28,
      "8": 29,
      "9": 30,
      ":": 31,
      ";": 32,
      "<": 33,
      "=": 34,
      ">": 35,
      "?": 36,
      "@": 37,
      "A": 38,
      "B": 39,
      "C": 40,
      "D": 41,
      "E": 42,
      "F": 43,
      "G": 44,
      "H": 45,
      "I": 46,
      "J": 47,
      "K": 48,
      "L": 49,
      "M": 50,
      "N": 51,
      "O": 52,
      "P": 53,
      "Q": 54,
      "R": 55,
      "S": 56,
      "T": 57,
      "U": 58,
      "V": 59,
      "W": 60,
      "X": 61,
      "Y": 62,
      "Z": 63,
      "[": 64,
      "\\": 65,
      "]": 66,
      "^": 67,
      "_": 68,
      "`": 69,
      "a": 70,
      "b": 71,
      "c": 72,
      "d": 73,
      "e": 74,
      "f": 75,
      "g": 76,
      "h": 77,
      "i": 78,
      "j": 79,
      "k": 80,
      "l": 81,
      "m": 82,
      "n": 83,
      "o": 84,
      "p": 85,
      "q": 86,
      "r": 87,
      "s": 88,
      "t": 89,
      "u": 90,
      "v": 91,
      "w": 92,
      "x": 93,
      "y": 94,
      "z": 95,
      "{": 96,
      "|": 97,
      "}": 98,
      "~": 99,
      "¡": 100,
      "¢": 101,
      "£": 102,
      "¤": 103,
      "¥": 104,
      "¦": 105,
      "§": 106,
      "¨": 107,
      "©": 108,
      "ª": 109,
      "«": 110,
      "¬": 111,
      "®": 112,
      "¯": 113,
      "°": 114,
      "±": 115,
      "²": 116,
      "³": 117,
      "´": 118,
      "µ": 119,
      "¶": 120,
      "·": 121,
      "¸": 122,
      "¹": 123,
      "º": 124,
      "»": 125,
      "¼": 126,
      "½": 127,
      "¾": 128,
      "¿": 129,
      "À": 130,
      "Á": 131,
      "Â": 132,
      "Ã": 133,
      "Ä": 134,
      "Å": 135,
      "Æ": 136,
      "Ç": 137,
      "È": 138,
      "É": 139,
      "Ê": 140,
      "Ë": 141,
      "Ì": 142,
      "Í": 143,
      "Î": 144,
      "Ï": 145,
      "Ð": 146,
      "Ñ": 147,
      "Ò": 148,
      "Ó": 149,
      "Ô": 150,
      "Õ": 151,
      "Ö": 152,
      "×": 153,
      "Ø": 154,
      "Ù": 155,
      "Ú": 156,
      "Û": 157,
      "Ü": 158,
      "Ý": 159,
      "Þ": 160,
      "ß": 161,
      "à": 162,
      "á": 163,
      "â": 164,
      "ã": 165,
      "ä": 166,
      "å": 167,
      "æ": 168,
      "ç": 169,
      "è": 170,
      "é": 171,
      "ê": 172,
      "ë": 173,
      "ì": 174,
      "í": 175,
      "î": 176,
      "ï": 177,
      "ð": 178,
      "ñ": 179,
      "ò": 180,
      "ó": 181,
      "ô": 182,
      "õ": 183,
      "ö": 184,
      "÷": 185,
      "ø": 186,
      "ù": 187,
      "ú": 188,
      "û": 189,
      "ü": 190,
      "ý": 191,
      "þ": 192,
      "ÿ": 193,
      "Ā": 194,
      "ā": 195,
      "Ă": 196,
      "ă": 197,
      "Ą": 198,
      "ą": 199,
      "Ć": 200,
      "ć": 201,
      "Ĉ": 202,
      "ĉ": 203,
      "Ċ": 204,
      "ċ": 205,
      "Č": 206,
      "č": 207,
      "Ď": 208,
      "ď": 209,
      "Đ": 210,
      "đ": 211,
      "Ē": 212,
      "ē": 213,
      "Ĕ": 214,
      "ĕ": 215,
      "Ė": 216,
      "ė": 217,
      "Ę": 218,
      "ę": 219,
      "Ě": 220,
      "ě": 221,
      "Ĝ": 222,
      "ĝ": 223,
      "Ğ": 224,
      "ğ": 225,
      "Ġ": 226,
      "ġ": 227,
      "Ģ": 228,
      "ģ": 229,
      "Ĥ": 230,
      "ĥ": 231,
      "Ħ": 232,
      "ħ": 233,
      "Ĩ": 234,
      "ĩ": 235,
      "Ī": 236,
      "ī": 237,
      "Ĭ": 238,
      "ĭ": 239,
      "Į": 240,
      "į": 241,
      "İ": 242,
      "ı": 243,
      "Ĳ": 244,
      "ĳ": 245,
      "Ĵ": 246,
      "ĵ": 247,
      "Ķ": 248,
      "ķ": 249,
      "ĸ": 250,
      "Ĺ": 251,
      "ĺ": 252,
      "Ļ": 253,
      "ļ": 254,
      "Ľ": 255,
      "ľ": 256,
      "Ŀ": 257,
      "ŀ": 258,
      "Ł": 259,
      "ł": 260,
      "Ń": 261,
      "Ġd": 262,
      "Ã©": 263,
      "ĠÃ©": 264,
      "Ġe": 265,
      "Ġa": 266,
      "qu": 267,
      "Ġp": 268,
      "nt": 269,
      "re": 270,
      "Ġde": 271,
      "Ġqu": 272,
      "Ġc": 273,
      "or": 274,
      "os": 275,
      "ad": 276,
      "Ġu": 277,
      "Ã£": 278,
      "Ã£o": 279,
      "Ġque": 280,
      "ma": 281,
      "er": 282,
      "al": 283,
      "ar": 284,
      "Ã§": 285,
      "Ġs": 286,
      "in": 287,
      "on": 288,
      "me": 289,
      "as": 290,
      "Ġt": 291,
      "ic": 292,
      "is": 293,
      "Ġo": 294,
      "Ġum": 295,
      "Ã§Ã£o": 296,
      "ro": 297,
      "Ġf": 298,
      "ci": 299,
      "Ġm": 300,
      "om": 301,
      "ra": 302,
      "Ġem": 303,
      "do": 304,
      "es": 305,
      "Ġn": 306,
      "en": 307,
      "Ġre": 308,
      "em": 309,
      "lo": 310,
      "Ã¡": 311,
      "it": 312,
      "an": 313,
      "Ġv": 314,
      "Ġuma": 315,
      "de": 316,
      "le": 317,
      "st": 318,
      "Ġ=": 319,
      "ri": 320,
      "nte": 321,
      "Qu": 322,
      "Ġcom": 323,
      "id": 324,
      "la": 325,
      "ica": 326,
      "Ãª": 327,
      "iv": 328,
      "ment": 329,
      "ĠP": 330,
      "Ġpar": 331,
      "emp": 332,
      "ado": 333,
      "ÃŃ": 334,
      "Ġl": 335,
      "Ġ(": 336,
      "Ġcon": 337,
      "Ġmo": 338,
      "ando": 339,
      "nci": 340,
      "Ġma": 341,
      "ada": 342,
      "ut": 343,
      "Ġpro": 344,
      "Ġin": 345,
      "res": 346,
      "ade": 347,
      "Ġi": 348,
      "aÃ§Ã£o": 349,
      "Ġme": 350,
      "Ġb": 351,
      "Ġ1": 352,
      "at": 353,
      "Ã³": 354,
      "ncia": 355,
      "Ġdo": 356,
      "ados": 357,
      "Ġpor": 358,
      "Ġse": 359,
      "Qual": 360,
      "Ġpara": 361,
      "un": 362,
      "ia": 363,
      "Ã¢": 364,
      "ĠE": 365,
      "iz": 366,
      "ĠS": 367,
      "Ġco": 368,
      "mento": 369,
      "ig": 370,
      "ist": 371,
      "if": 372,
      "ve": 373,
      "Ġent": 374,
      "idade": 375,
      "ec": 376,
      "ol": 377,
      "Ġda": 378,
      "Ġus": 379,
      "oc": 380,
      "Ġdados": 381,
      "Ġg": 382,
      "ass": 383,
      "sÃ£o": 384,
      "Ġx": 385,
      "Ã©t": 386,
      "th": 387,
      "orma": 388,
      "ing": 389,
      "ion": 390,
      "xemp": 391,
      "ĠExemp": 392,
      "ab": 393,
      "du": 394,
      "Ãµ": 395,
      "Ãµes": 396,
      "ter": 397,
      "ul": 398,
      "Ãªncia": 399,
      "ĠPy": 400,
      "Ġentre": 401,
      "ĠExemplo": 402,
      ").": 403,
      "im": 404,
      "ta": 405,
      "Ġ2": 406,
      "ĠM": 407,
      "ĠN": 408,
      "Ġno": 409,
      "thon": 410,
      "ĠPython": 411,
      "ent": 412,
      "alor": 413,
      "Com": 414,
      "ip": 415,
      "Ġsu": 416,
      "Ġtemp": 417,
      "ocÃª": 418,
      "ant": 419,
      "et": 420,
      "il": 421,
      "ula": 422,
      "ĠL": 423,
      "ren": 424,
      "Â²": 425,
      "ĠF": 426,
      "Ã§a": 427,
      "ina": 428,
      "Ġou": 429,
      "Ġcont": 430,
      "io": 431,
      "ur": 432,
      "ura": 433,
      "Ġper": 434,
      "Ġcomp": 435,
      "se": 436,
      "Ġex": 437,
      "00": 438,
      "so": 439,
      "Ãº": 440,
      "adr": 441,
      "Ã§Ãµes": 442,
      "ĠnÃ£o": 443,
      "ot": 444,
      "Ġel": 445,
      "Ġap": 446,
      "ico": 447,
      "ens": 448,
      "Ġint": 449,
      "ns": 450,
      "ver": 451,
      "ĠT": 452,
      "ari": 453,
      "da": 454,
      "Ġ+": 455,
      "Ġes": 456,
      "Ġest": 457,
      "Ġat": 458,
      "Ġso": 459,
      "Ġtre": 460,
      "Ġres": 461,
      "QL": 462,
      "VocÃª": 463,
      "ente": 464,
      "ir": 465,
      "per": 466,
      "ĠA": 467,
      "Ġon": 468,
      "ĠÃ¡": 469,
      "Ġvari": 470,
      "let": 471,
      "vel": 472,
      "Ã©tr": 473,
      "ag": 474,
      "mo": 475,
      "orre": 476,
      "ero": 477,
      "Ġ4": 478,
      "ĠC": 479,
      "ĠR": 480,
      "Ġos": 481,
      "Ġpos": 482,
      "Ġca": 483,
      "ase": 484,
      "Ġfor": 485,
      "Ġmode": 486,
      "Como": 487,
      "Ġtempo": 488,
      "ais": 489,
      "ce": 490,
      "ho": 491,
      "ĠÃ": 492,
      "Ġar": 493,
      "Ġtra": 494,
      "ressÃ£o": 495,
      "unÃ§Ã£o": 496,
      "NÃ£o": 497,
      "bu": 498,
      "ces": 499,
      "eu": 500,
      "gu": 501,
      "por": 502,
      "te": 503,
      "tor": 504,
      "ĠO": 505,
      "Ġh": 506,
      "Ġra": 507,
      "Ġdos": 508,
      "Ġdif": 509,
      "ite": 510,
      "Um": 511,
      "Use": 512,
      "lu": 513,
      "po": 514,
      "pos": 515,
      "Ġ0": 516,
      "Ġ3": 517,
      "Ġen": 518,
      "Ġpo": 519,
      "Ġpass": 520,
      "Ã¢n": 521,
      "Ã¢ncia": 522,
      "ĠelÃ©tr": 523,
      "Ġinter": 524,
      "forma": 525,
      "ĠI": 526,
      "Ġal": 527,
      "ĠsÃ£o": 528,
      "Ġten": 529,
      "cion": 530,
      "ivo": 531,
      "Ġdife": 532,
      "iÃ§Ã£o": 533,
      "rm": 534,
      "sa": 535,
      "ine": 536,
      "met": 537,
      "ida": 538,
      "Ġnome": 539,
      "Ġtreina": 540,
      "QLE": 541,
      "ĠÃł": 542,
      "cis": 543,
      "dade": 544,
      "eci": 545,
      "ial": 546,
      "ou": 547,
      "ĠG": 548,
      "Ġle": 549,
      "icos": 550,
      "Ġna": 551,
      "Ġcomo": 552,
      "ativ": 553,
      "Ġcontro": 554,
      "Ġonde": 555,
      "ido": 556,
      "tas": 557,
      "Ġ-": 558,
      "Ġdes": 559,
      "ador": 560,
      "Ġforma": 561,
      "ĠfunÃ§Ã£o": 562,
      "Ã¡l": 563,
      "Ġusar": 564,
      "renÃ§a": 565,
      "Ġmodelo": 566,
      "ĠdiferenÃ§a": 567,
      "Ġtreinamento": 568,
      "ca": 569,
      "co": 570,
      "ema": 571,
      "gra": 572,
      "ha": 573,
      "ros": 574,
      "Ã´": 575,
      "âĤ": 576,
      "Ġor": 577,
      "ĠQLE": 578,
      "Ġpe": 579,
      "Ġpre": 580,
      "Ġcalor": 581,
      "man": 582,
      "mente": 583,
      "log": 584,
      "ito": 585,
      "Ġmotor": 586,
      "Ġmais": 587,
      "ch": 588,
      "ei": 589,
      "ru": 590,
      "ral": 591,
      "to": 592,
      "Ġquando": 593,
      "Ġquadr": 594,
      "Ġcri": 595,
      "arn": 596,
      "Ġsig": 597,
      "Ġsist": 598,
      "Ġflu": 599,
      "Ġvalor": 600,
      "Quant": 601,
      "Ġmas": 602,
      "Ġproces": 603,
      "abil": 604,
      "Ġsub": 605,
      "Ãºm": 606,
      "agem": 607,
      "Ġtrans": 608,
      "Ġsistema": 609,
      "dia": 610,
      "ju": 611,
      "no": 612,
      "nif": 613,
      "pres": 614,
      "Ã©dia": 615,
      "Ġpadr": 616,
      "nto": 617,
      "ntes": 618,
      "rea": 619,
      "Ġrela": 620,
      "Ã¡vel": 621,
      "ivos": 622,
      "Ġind": 623,
      "Ġinte": 624,
      "ech": 625,
      "Ġperm": 626,
      "cional": 627,
      "Ãºmero": 628,
      "..": 629,
      "43": 630,
      "ai": 631,
      "vo": 632,
      "Ġer": 633,
      "Ġan": 634,
      "Ġao": 635,
      "Ġas": 636,
      "que": 637,
      "Ġcorre": 638,
      "inal": 639,
      "ĠmÃ©dia": 640,
      "stri": 641,
      "mentos": 642,
      "Ġcond": 643,
      "Ġindu": 644,
      "Ġbase": 645,
      "Ġseu": 646,
      "ĠLei": 647,
      "ensor": 648,
      "ĠTech": 649,
      "Ġsignif": 650,
      "abilidade": 651,
      "),": 652,
      "bre": 653,
      "dos": 654,
      "los": 655,
      "pl": 656,
      "xo": 657,
      "ĠÎ": 658,
      "erg": 659,
      "Ġta": 660,
      "Ġob": 661,
      "ĠnÃºmero": 662,
      "Ġlim": 663,
      "Ġmater": 664,
      "uto": 665,
      "Ġprob": 666,
      "izado": 667,
      "abe": 668,
      "ĠÃ¡rea": 669,
      "Ġintern": 670,
      "Ġindustri": 671,
      "ber": 672,
      "fer": 673,
      "mb": 674,
      "ras": 675,
      "va": 676,
      "Ãī": 677,
      "Ġ8": 678,
      "ĠH": 679,
      "ĠU": 680,
      "Ġdis": 681,
      "Ġele": 682,
      "quÃª": 683,
      "Ġpr": 684,
      "maÃ§Ã£o": 685,
      "Ġsensor": 686,
      "Ġfo": 687,
      "Ġve": 688,
      "Ġver": 689,
      "Quando": 690,
      "Ġpart": 691,
      "Ġconver": 692,
      "Ġapren": 693,
      "ativa": 694,
      "arning": 695,
      "Ġpermite": 696,
      "ergia": 697,
      "Re": 698,
      "cu": 699,
      "iment": 700,
      "lass": 701,
      "pen": 702,
      "sor": 703,
      "vis": 704,
      "Ġ/": 705,
      "Ġ5": 706,
      "Ġ6": 707,
      "ĠJ": 708,
      "Ġâ": 709,
      "Ġdiv": 710,
      "Ã©rm": 711,
      "ĠpressÃ£o": 712,
      "Ġderi": 713,
      "adas": 714,
      "erat": 715,
      "Ġser": 716,
      "ons": 717,
      "cidade": 718,
      "Ġne": 719,
      "itivos": 720,
      "Quais": 721,
      "ÃŃvel": 722,
      "Ġconst": 723,
      "Ġpropor": 724,
      "Ġim": 725,
      "Ġmede": 726,
      "Ġ10": 727,
      "Ġ100": 728,
      "ĠSou": 729,
      "olu": 730,
      "Ġusado": 731,
      "assi": 732,
      "abassi": 733,
      "ural": 734,
      "ĠvariÃ¡vel": 735,
      "gulo": 736,
      "Ġenergia": 737,
      "Ã¢ngulo": 738,
      "ĠtensÃ£o": 739,
      "metro": 740,
      "ĠGabassi": 741,
      "Ġlearning": 742,
      "Ã©rmica": 743,
      "Ġderiv": 744,
      "ante": 745,
      "der": 746,
      "for": 747,
      "gressÃ£o": 748,
      "gral": 749,
      "ide": 750,
      "iente": 751,
      "pa": 752,
      "rÃ¡": 753,
      "ui": 754,
      "us": 755,
      "xa": 756,
      "ĠD": 757,
      "ĠV": 758,
      "Ġdi": 759,
      "Ġequ": 760,
      "Ġquant": 761,
      "Ġcor": 762,
      "alo": 763,
      "Ġfre": 764,
      "ĠfÃ³": 765,
      "Ġreal": 766,
      "locidade": 767,
      "Ġling": 768,
      "Ġcons": 769,
      "Ġmet": 770,
      "veis": 771,
      "ĠNÃ£o": 772,
      "Ġsoma": 773,
      "Ġsobre": 774,
      "Ġresist": 775,
      "Ġpode": 776,
      "Ġord": 777,
      "Ġcorrente": 778,
      "Ġprobabilidade": 779,
      "Ġlingu": 780,
      "IN": 781,
      "ac": 782,
      "az": 783,
      "cal": 784,
      "cul": 785,
      "dizado": 786,
      "fi": 787,
      "ior": 788,
      "ira": 789,
      "jet": 790,
      "lar": 791,
      "rad": 792,
      "rut": 793,
      "sos": 794,
      "tion": 795,
      "um": 796,
      "up": 797,
      "ual": 798,
      "Ġlog": 799,
      "Ġelet": 800,
      "quÃªncia": 801,
      "Ġclass": 802,
      "arg": 803,
      "Ġsem": 804,
      "Ġsinal": 805,
      "Ġtro": 806,
      "Ġtip": 807,
      "icion": 808,
      "ĠmA": 809,
      "Ã¡ri": 810,
      "Ã¡veis": 811,
      "ĠvocÃª": 812,
      "Ġlist": 813,
      "Ġconju": 814,
      "ncias": 815,
      "Ġprot": 816,
      "Ġinc": 817,
      "Ġinst": 818,
      "Ġmed": 819,
      "Ġ12": 820,
      "Ã³g": 821,
      "Ġdois": 822,
      "igo": 823,
      "ult": 824,
      "ĠMeu": 825,
      "Ġtemperat": 826,
      "Ġesp": 827,
      "Ġcam": 828,
      "Ġraiz": 829,
      "rmula": 830,
      "inear": 831,
      "Ġprecis": 832,
      "Ġsubst": 833,
      "Ġsignifica": 834,
      "Ġvelocidade": 835,
      "Ġderivada": 836,
      "ĠfÃ³rmula": 837,
      "Ġorden": 838,
      ")?": 839,
      "ID": 840,
      "__": 841,
      "av": 842,
      "bo": 843,
      "das": 844,
      "gor": 845,
      "las": 846,
      "nd": 847,
      "nidade": 848,
      "neci": 849,
      "olo": 850,
      "par": 851,
      "pon": 852,
      "rada": 853,
      "rase": 854,
      "vi": 855,
      "zero": 856,
      "Â³": 857,
      "Ġis": 858,
      "Ġzero": 859,
      "Ġad": 860,
      "ĠaÃ§Ã£o": 861,
      "Ġpes": 862,
      "ntos": 863,
      "ntro": 864,
      "Ġdef": 865,
      "Ġcha": 866,
      "ost": 867,
      "indo": 868,
      "Ġtabe": 869,
      "icar": 870,
      "icas": 871,
      "env": 872,
      "Ġret": 873,
      "Ġredu": 874,
      "ital": 875,
      "riz": 876,
      "riÃ¢ngulo": 877,
      "icaÃ§Ã£o": 878,
      "Ġlinear": 879,
      "Ġinforma": 880,
      "izaÃ§Ã£o": 881,
      "iga": 882,
      "Ġusando": 883,
      "ocolo": 884,
      "entes": 885,
      "Ġsuper": 886,
      "Ġexper": 887,
      "Ġtrein": 888,
      "ĠforÃ§a": 889,
      "Ġforneci": 890,
      "bus": 891,
      "ĠhÃ¡": 892,
      "ĠelÃ©trica": 893,
      "Ġtenho": 894,
      "Ã´n": 895,
      "Ġpela": 896,
      "Ġcriada": 897,
      "Quanto": 898,
      "present": 899,
      "ĠrelaÃ§Ã£o": 900,
      "Ġintegral": 901,
      "Ġindustrial": 902,
      "Ġ1000": 903,
      "Ġlinguagem": 904,
      "rutura": 905,
      "Ġconjunto": 906,
      "Ġprotocolo": 907,
      "'(": 908,
      "Ap": 909,
      "CA": 910,
      "ET": 911,
      "NN": 912,
      "OIN": 913,
      "Pro": 914,
      "am": 915,
      "ble": 916,
      "cor": 917,
      "ction": 918,
      "gn": 919,
      "gul": 920,
      "heci": 921,
      "iro": 922,
      "lt": 923,
      "mica": 924,
      "od": 925,
      "tar": 926,
      "tec": 927,
      "vit": 928,
      "vula": 929,
      "vio": 930,
      "ĠB": 931,
      "ĠK": 932,
      "Ġlo": 933,
      "ĠÃŃ": 934,
      "ĠQuant": 935,
      "Ġ..": 936,
      "Ġdist": 937,
      "Ġdura": 938,
      "Ã©r": 939,
      "Ġace": 940,
      "Ġpri": 941,
      "Ġpla": 942,
      "Ġqual": 943,
      "Ġcent": 944,
      "ermo": 945,
      "alav": 946,
      "Ġsa": 947,
      "Ġsen": 948,
      "Ġto": 949,
      "Ġtem": 950,
      "ĠtÃ©rmica": 951,
      "Ġout": 952,
      "Ġoper": 953,
      "ĠmÃ©t": 954,
      "ĠmÃº": 955,
      "enas": 956,
      "Ġrede": 957,
      "Ã¡t": 958,
      "lex": 959,
      "Ġcomun": 960,
      "idos": 961,
      "ÃŃf": 962,
      "Ġconfi": 963,
      "Ġmovi": 964,
      "Ġmaior": 965,
      "Ġprogra": 966,
      "Ġinver": 967,
      "Ã³d": 968,
      "iza": 969,
      "ĠSe": 970,
      "Ġcome": 971,
      "Ġentrada": 972,
      "Ġger": 973,
      "Ġgra": 974,
      "Ġapenas": 975,
      "Ġestrutura": 976,
      "Ġrespos": 977,
      "ĠvariaÃ§Ã£o": 978,
      "Ġposs": 979,
      "Ġart": 980,
      "Ġhip": 981,
      "Ġpasso": 982,
      "ĠelÃ©trons": 983,
      "Ġcontrole": 984,
      "Ã¡lvula": 985,
      "âĤĤ": 986,
      "Ġfluxo": 987,
      "ĠpadrÃ£o": 988,
      "Ġerro": 989,
      "Ġbaseado": 990,
      "ĠÎĶ": 991,
      "Ġobjet": 992,
      "Ġlimit": 993,
      "Ġmaterial": 994,
      "quÃªncias": 995,
      "Ġverdade": 996,
      "Ġconverte": 997,
      "imental": 998,
      "Ġconstante": 999,
      "Ġproporcional": 1000,
      "Ġdire": 1001,
      "Ġeletro": 1002,
      "Ġtipos": 1003,
      "Ã³gica": 1004,
      "Ġexperimental": 1005,
      "ltip": 1006,
      "ĠQuantit": 1007,
      "Ġ...": 1008,
      "Ġdurante": 1009,
      "ĠmÃ©to": 1010,
      "ĠmÃºltip": 1011,
      "Ġmovimento": 1012,
      ")/": 1013,
      "DA": 1014,
      "FunÃ§Ã£o": 1015,
      "Me": 1016,
      "Meu": 1017,
      "Res": 1018,
      "el": 1019,
      "fic": 1020,
      "ima": 1021,
      "ian": 1022,
      "iÃ§Ãµes": 1023,
      "ler": 1024,
      "lic": 1025,
      "of": 1026,
      "op": 1027,
      "pri": 1028,
      "ry": 1029,
      "rvo": 1030,
      "ser": 1031,
      "tivo": 1032,
      "ud": 1033,
      "ĠW": 1034,
      "Ġj": 1035,
      "Ġlet": 1036,
      "Ġdas": 1037,
      "Ã©m": 1038,
      "Ġab": 1039,
      "Ġaces": 1040,
      "Ġauto": 1041,
      "Ġamb": 1042,
      "Ġpot": 1043,
      "Ġpalav": 1044,
      "Ġdeforma": 1045,
      "Ã§o": 1046,
      "Ġsim": 1047,
      "ino": 1048,
      "ong": 1049,
      "mens": 1050,
      "ĠtriÃ¢ngulo": 1051,
      "ise": 1052,
      "ĠmÃ¡": 1053,
      "ĠmÃ³": 1054,
      "Ġrepresent": 1055,
      "Ġvolu": 1056,
      "dente": 1057,
      "stica": 1058,
      "ribu": 1059,
      "iva": 1060,
      "ĠparÃ¢": 1061,
      "adores": 1062,
      "ÃŃt": 1063,
      "Ġconheci": 1064,
      "utor": 1065,
      "Ġmes": 1066,
      "Ġbin": 1067,
      "Ġbus": 1068,
      "Ġ14": 1069,
      "ation": 1070,
      "Ã³s": 1071,
      "Ã³t": 1072,
      "Ġset": 1073,
      "iais": 1074,
      "ĠSQL": 1075,
      "igaÃ§Ã£o": 1076,
      "Ġgrad": 1077,
      "Ã©tica": 1078,
      "ĠNe": 1079,
      "Ġsua": 1080,
      "Ġcompar": 1081,
      "ĠRe": 1082,
      "Ġpositivos": 1083,
      "bust": 1084,
      "Ġcontrola": 1085,
      "Ġdesenv": 1086,
      "âĤģ": 1087,
      "chine": 1088,
      "Ġquadrada": 1089,
      "Ġerros": 1090,
      "ples": 1091,
      "Ġtaxa": 1092,
      "Ġlimite": 1093,
      "Ġmateriais": 1094,
      "ferÃªncia": 1095,
      "ĠUnidade": 1096,
      "Ġdispos": 1097,
      "Ġaprendizado": 1098,
      "ĠJOIN": 1099,
      "Ġdivid": 1100,
      "Ġimpor": 1101,
      "ĠequaÃ§Ã£o": 1102,
      "Ġcorpo": 1103,
      "alores": 1104,
      "ĠfrequÃªncia": 1105,
      "ĠmetÃ¡l": 1106,
      "ĠresistÃªncia": 1107,
      "Ġinstru": 1108,
      "Ġtemperatura": 1109,
      "gorit": 1110,
      "Ġpesos": 1111,
      "ntrol": 1112,
      "Ġtabela": 1113,
      "Ġreduz": 1114,
      "ĠinformaÃ§Ãµes": 1115,
      "Ġfornecidos": 1116,
      "odbus": 1117,
      "ĠcomunicaÃ§Ã£o": 1118,
      "Ġcometer": 1119,
      "iana": 1120,
      "ĠautomaÃ§Ã£o": 1121,
      "Ġsimples": 1122,
      "ĠmÃ³du": 1123,
      "Ġvolume": 1124,
      "Ġdesenvol": 1125,
      "10": 1126,
      "20": 1127,
      "ER": 1128,
      "ST": 1129,
      "Sim": 1130,
      "bal": 1131,
      "con": 1132,
      "corre": 1133,
      "cÃ¢n": 1134,
      "eito": 1135,
      "fa": 1136,
      "fit": 1137,
      "ge": 1138,
      "gente": 1139,
      "hor": 1140,
      "iÃ£o": 1141,
      "ientes": 1142,
      "lun": 1143,
      "nos": 1144,
      "og": 1145,
      "pro": 1146,
      "rdu": 1147,
      "sar": 1148,
      "son": 1149,
      "tom": 1150,
      "ting": 1151,
      "uas": 1152,
      "uito": 1153,
      "Ġ7": 1154,
      "ĠQ": 1155,
      "ĠÏ": 1156,
      "Ġro": 1157,
      "ĠCom": 1158,
      "ĠÃ¢n": 1159,
      "Ī«": 1160,
      "īł": 1161,
      "Ġduas": 1162,
      "Ġaju": 1163,
      "Ġpl": 1164,
      "nter": 1165,
      "rest": 1166,
      "Ġdecis": 1167,
      "ĠquÃª": 1168,
      "Ġcarg": 1169,
      "Ġcrase": 1170,
      "oss": 1171,
      "aria": 1172,
      "Ã§as": 1173,
      "inu": 1174,
      "inÃ¢": 1175,
      "inha": 1176,
      "Ġte": 1177,
      "icial": 1178,
      "ismo": 1179,
      "Ġocorre": 1180,
      "Ġfal": 1181,
      "cip": 1182,
      "Ġmin": 1183,
      "omb": 1184,
      "enu": 1185,
      "endo": 1186,
      "Ġred": 1187,
      "ĠreaÃ§Ã£o": 1188,
      "Ġval": 1189,
      "ĠvÃ¡lvula": 1190,
      "Ġvalores": 1191,
      "ria": 1192,
      "Quem": 1193,
      "idad": 1194,
      "ĠPID": 1195,
      "empre": 1196,
      "ÃŃm": 1197,
      "ÃŃci": 1198,
      "ÃŃda": 1199,
      "Ġmol": 1200,
      "utador": 1201,
      "Ġinde": 1202,
      "Ġigu": 1203,
      "Ġmeu": 1204,
      "ator": 1205,
      "iagra": 1206,
      "Ġcolun": 1207,
      "ecut": 1208,
      "ecÃŃf": 1209,
      "Ġusa": 1210,
      "Ġusada": 1211,
      "ormal": 1212,
      "ull": 1213,
      "ĠMot": 1214,
      "ulaÃ§Ã£o": 1215,
      "uros": 1216,
      "Ġperman": 1217,
      "Ġcomplet": 1218,
      "ensidade": 1219,
      "Ġatu": 1220,
      "ĠÃ¡tom": 1221,
      "Ġposso": 1222,
      "Ġcap": 1223,
      "Ġcapa": 1224,
      "Ġarqu": 1225,
      "Ġtrabal": 1226,
      "Ġenco": 1227,
      "Ġpassagem": 1228,
      "ĠelÃ©tricos": 1229,
      "ĠIA": 1230,
      "Ġalter": 1231,
      "Ġalgorit": 1232,
      "Ġprevis": 1233,
      "Ġfluidos": 1234,
      "ĠpadrÃµes": 1235,
      "Ġindicar": 1236,
      "ĠcondiÃ§Ã£o": 1237,
      "Ġsignific": 1238,
      "Ġinterna": 1239,
      "Ġinternos": 1240,
      "Ġindustriais": 1241,
      "Ġelementos": 1242,
      "Ġpartida": 1243,
      "vision": 1244,
      "Ġâīł": 1245,
      "forÃ§o": 1246,
      "Ġquantidade": 1247,
      "Ġtroca": 1248,
      "Ġlista": 1249,
      "ĠespecÃŃf": 1250,
      "ĠsubstÃ¢ncia": 1251,
      "Ġisol": 1252,
      "ostra": 1253,
      "Ġsupervision": 1254,
      "Ġtreinada": 1255,
      "gnÃ©t": 1256,
      "gulos": 1257,
      "lexidade": 1258,
      "ĠprogramaÃ§Ã£o": 1259,
      "Ġgerar": 1260,
      "Ġrespostas": 1261,
      "Ġacesso": 1262,
      "ĠpotÃªncia": 1263,
      "Ġdispositivos": 1264,
      "fitting": 1265,
      "rduino": 1266,
      "ĠÃ¢ngulos": 1267,
      "Ġajust": 1268,
      "ĠdecisÃ£o": 1269,
      "Ġigual": 1270,
      "Ġcompleto": 1271,
      "):": 1272,
      "Est": 1273,
      "Fui": 1274,
      "LU": 1275,
      "MI": 1276,
      "Por": 1277,
      "Par": 1278,
      "Rec": 1279,
      "SE": 1280,
      "Se": 1281,
      "Tra": 1282,
      "Uma": 1283,
      "amento": 1284,
      "aÃ§Ãµes": 1285,
      "cent": 1286,
      "ed": 1287,
      "ep": 1288,
      "ere": 1289,
      "gan": 1290,
      "gun": 1291,
      "has": 1292,
      "int": 1293,
      "lig": 1294,
      "lhor": 1295,
      "mp": 1296,
      "mina": 1297,
      "py": 1298,
      "pag": 1299,
      "pber": 1300,
      "plexidade": 1301,
      "tro": 1302,
      "til": 1303,
      "tura": 1304,
      "triz": 1305,
      "ub": 1306,
      "uz": 1307,
      "vando": 1308,
      "xid": 1309,
      "xim": 1310,
      "xima": 1311,
      "zen": 1312,
      "Â°": 1313,
      "ÎĶ": 1314,
      "âĪ«": 1315,
      "Ġ9": 1316,
      "Ġ>": 1317,
      "Ġk": 1318,
      "ĠÃº": 1319,
      "Ģr": 1320,
      "Īļ": 1321,
      "Ġdx": 1322,
      "Ġdat": 1323,
      "Ġdig": 1324,
      "Ġdio": 1325,
      "Ġam": 1326,
      "Ġau": 1327,
      "Ġax": 1328,
      "recis": 1329,
      "Ġdepen": 1330,
      "Ġdetec": 1331,
      "Ġcer": 1332,
      "Ġcal": 1333,
      "ĠcÃŃ": 1334,
      "ĠcÃ³d": 1335,
      "ort": 1336,
      "osso": 1337,
      "Ġun": 1338,
      "mazen": 1339,
      "erm": 1340,
      "Ġsol": 1341,
      "Ġsolu": 1342,
      "Ġstar": 1343,
      "Ġsort": 1344,
      "init": 1345,
      "incip": 1346,
      "ono": 1347,
      "meiro": 1348,
      "aspber": 1349,
      "Ġtup": 1350,
      "Ġtermo": 1351,
      "icro": 1352,
      "Ġopos": 1353,
      "ĠfÃŃ": 1354,
      "Ġfun": 1355,
      "Ġfil": 1356,
      "Ġfaz": 1357,
      "cido": 1358,
      "Ġmicro": 1359,
      "ese": 1360,
      "Ġnula": 1361,
      "Ġnormal": 1362,
      "Ġrecal": 1363,
      "anÃ§a": 1364,
      "Ġvai": 1365,
      "Ġvaz": 1366,
      "leta": 1367,
      "Ġcombust": 1368,
      "Ãªs": 1369,
      "ĠPi": 1370,
      "ĠPor": 1371,
      "ĠPro": 1372,
      "Ġparte": 1373,
      "ÃŃmetro": 1374,
      "ÃŃstica": 1375,
      "Ġlit": 1376,
      "Ġlong": 1377,
      "Ġluz": 1378,
      "Ġmolar": 1379,
      "Ġmatriz": 1380,
      "utos": 1381,
      "ĠmecÃ¢n": 1382,
      "Ġmenos": 1383,
      "Ġmelhor": 1384,
      "atch": 1385,
      "Ã³p": 1386,
      "Ġporque": 1387,
      "ĠporquÃª": 1388,
      "Ġsent": 1389,
      "ĠEst": 1390,
      "ificial": 1391,
      "ional": 1392,
      "tante": 1393,
      "taforma": 1394,
      "Ġ27": 1395,
      "Ġ200": 1396,
      "ĠModbus": 1397,
      "ĠLÃ³gica": 1398,
      "ĠLog": 1399,
      "uras": 1400,
      "Ġcompri": 1401,
      "Ġintensidade": 1402,
      "Ġatra": 1403,
      "Ġatual": 1404,
      "iros": 1405,
      "ircu": 1406,
      "Ġonda": 1407,
      "ĠÃ¡rvo": 1408,
      "ĠvariÃ¢ncia": 1409,
      "ĠCo": 1410,
      "ĠposiÃ§Ã£o": 1411,
      "Ġmodela": 1412,
      "Ġarmazen": 1413,
      "Ġpop": 1414,
      "Ġpassa": 1415,
      "metros": 1416,
      "ecial": 1417,
      "Ġcontrol": 1418,
      "Ã¡lise": 1419,
      "Ġorgan": 1420,
      "manho": 1421,
      "Ġquadrados": 1422,
      "Ġmassa": 1423,
      "Ġprocesso": 1424,
      "Ġprocessos": 1425,
      "ĠtransferÃªncia": 1426,
      "Ġsistemas": 1427,
      "Ġrelacion": 1428,
      "Ġindica": 1429,
      "Ġintelig": 1430,
      "aixa": 1431,
      "ĠanÃ¡lise": 1432,
      "Ġtamanho": 1433,
      "ĠprÃ³": 1434,
      "Ġfoi": 1435,
      "culo": 1436,
      "ĠâĪļ": 1437,
      "ĠproporÃ§Ã£o": 1438,
      "rÃ¡s": 1439,
      "ĠfrequÃªncias": 1440,
      "Ġresistor": 1441,
      "Ġclasse": 1442,
      "Ġtroc": 1443,
      "Ã¡ria": 1444,
      "Ã¡rio": 1445,
      "Ġmediana": 1446,
      "Ġespecial": 1447,
      "Ġcampo": 1448,
      "Ã´nica": 1449,
      "Apren": 1450,
      "CADA": 1451,
      "Ġloop": 1452,
      "ĠdistÃ¢ncia": 1453,
      "Ġaceler": 1454,
      "Ġprimeiro": 1455,
      "Ġplataforma": 1456,
      "Ġcentral": 1457,
      "ĠsaÃŃda": 1458,
      "Ġartificial": 1459,
      "Ġobjeto": 1460,
      "Ġverdadeiros": 1461,
      "Ġeletroma": 1462,
      "ĠQuantitativa": 1463,
      "ĠmÃ©todo": 1464,
      "ĠmÃºltiplas": 1465,
      "Ġletra": 1466,
      "ĠdeformaÃ§Ã£o": 1467,
      "ĠmÃ¡qu": 1468,
      "ribuiÃ§Ã£o": 1469,
      "Ġconhecimento": 1470,
      "ĠbinÃ¡ria": 1471,
      "Ã³tese": 1472,
      "Ġgradiente": 1473,
      "ĠmetÃ¡licos": 1474,
      "Ġinstrumento": 1475,
      "ĠmÃ³dulo": 1476,
      "Ġcargas": 1477,
      "omba": 1478,
      "Ġredes": 1479,
      "Ġindepen": 1480,
      "ĠMotor": 1481,
      "Ġcapital": 1482,
      "Ġcapaci": 1483,
      "Ġencont": 1484,
      "Ġalgoritmo": 1485,
      "ĠprevisÃ£o": 1486,
      "Ġsupervisionado": 1487,
      "minante": 1488,
      "xidaÃ§Ã£o": 1489,
      "Ġdiodo": 1490,
      "ĠcÃ³digo": 1491,
      "ĠsoluÃ§Ã£o": 1492,
      "incipal": 1493,
      "aspberry": 1494,
      "ĠfÃŃs": 1495,
      "Ġrecall": 1496,
      "ĠLogic": 1497,
      "ircuito": 1498,
      "ĠinteligÃªncia": 1499,
      "').": 1500,
      "('": 1501,
      "**": 1502,
      "Con": 1503,
      "De": 1504,
      "ED": 1505,
      "FET": 1506,
      "Hip": 1507,
      "HER": 1508,
      "In": 1509,
      "LP": 1510,
      "LigaÃ§Ã£o": 1511,
      "ON": 1512,
      "PI": 1513,
      "Py": 1514,
      "Seu": 1515,
      "SON": 1516,
      "TD": 1517,
      "Tor": 1518,
      "].": 1519,
      "acional": 1520,
      "achine": 1521,
      "bl": 1522,
      "cy": 1523,
      "cre": 1524,
      "cos": 1525,
      "cen": 1526,
      "cula": 1527,
      "dem": 1528,
      "dutor": 1529,
      "dinÃ¢": 1530,
      "ea": 1531,
      "eo": 1532,
      "fo": 1533,
      "fun": 1534,
      "gativ": 1535,
      "hm": 1536,
      "hÃ£": 1537,
      "ime": 1538,
      "ile": 1539,
      "iÃªncia": 1540,
      "iber": 1541,
      "iÃ³d": 1542,
      "ibl": 1543,
      "jeito": 1544,
      "kpro": 1545,
      "lf": 1546,
      "lÃ¡": 1547,
      "min": 1548,
      "mis": 1549,
      "mada": 1550,
      "mÃ³": 1551,
      "mico": 1552,
      "mÃ¡t": 1553,
      "na": 1554,
      "net": 1555,
      "neu": 1556,
      "oT": 1557,
      "ok": 1558,
      "oide": 1559,
      "oel": 1560,
      "pe": 1561,
      "rÃªs": 1562,
      "rculo": 1563,
      "sol": 1564,
      "tre": 1565,
      "ton": 1566,
      "tic": 1567,
      "tÃ¢ncia": 1568,
      "tida": 1569,
      "tual": 1570,
      "ug": 1571,
      "unci": 1572,
      "uso": 1573,
      "uman": 1574,
      "vÃ©": 1575,
      "vos": 1576,
      "val": 1577,
      "vado": 1578,
      "valor": 1579,
      "vido": 1580,
      "valo": 1581,
      "wor": 1582,
      "wton": 1583,
      "xto": 1584,
      "za": 1585,
      "zes": 1586,
      "Ãģ": 1587,
      "ÏĢr": 1588,
      "âģ": 1589,
      "Ġ'": 1590,
      "Ġr": 1591,
      "Ġla": 1592,
      "Ġ__": 1593,
      "Ġdim": 1594,
      "Ġdiagra": 1595,
      "Ġeve": 1596,
      "Ġevit": 1597,
      "Ġaqu": 1598,
      "Ġaman": 1599,
      "Ġantes": 1600,
      "Ġaber": 1601,
      "Ġagente": 1602,
      "quen": 1603,
      "ĠpH": 1604,
      "Ġpac": 1605,
      "rema": 1606,
      "rentes": 1607,
      "Ġdema": 1608,
      "Ġdeter": 1609,
      "Ġdecor": 1610,
      "Ġdeep": 1611,
      "Ġch": 1612,
      "Ġcos": 1613,
      "Ġcin": 1614,
      "Ġcada": 1615,
      "Ġcidad": 1616,
      "Ġcircuito": 1617,
      "arÃŃt": 1618,
      "Ġsabe": 1619,
      "onde": 1620,
      "aset": 1621,
      "Ġtor": 1622,
      "Ġtec": 1623,
      "Ġtur": 1624,
      "Ġtot": 1625,
      "ĠtrÃ¡s": 1626,
      "ĠtrÃªs": 1627,
      "ice": 1628,
      "iclo": 1629,
      "ĠoxidaÃ§Ã£o": 1630,
      "Ġfi": 1631,
      "Ġfot": 1632,
      "Ġfinal": 1633,
      "Ġfui": 1634,
      "cial": 1635,
      "ciado": 1636,
      "Ġmult": 1637,
      "Ġmud": 1638,
      "Ġmuito": 1639,
      "Ġmostra": 1640,
      "ess": 1641,
      "ĠnÃŃvel": 1642,
      "Ġnum": 1643,
      "enÃ§Ã£o": 1644,
      "enoide": 1645,
      "encial": 1646,
      "Ġrep": 1647,
      "Ġreais": 1648,
      "Ġretor": 1649,
      "ĠregressÃ£o": 1650,
      "ĠreforÃ§o": 1651,
      "emin": 1652,
      "Ã¡s": 1653,
      "ano": 1654,
      "ans": 1655,
      "anis": 1656,
      "anho": 1657,
      "anÃ§as": 1658,
      "lema": 1659,
      "lento": 1660,
      "rio": 1661,
      "laÃ§Ã£o": 1662,
      "icaÃ§Ãµes": 1663,
      "ivaÃ§Ã£o": 1664,
      "ĠPosso": 1665,
      "ÃŃn": 1666,
      "ÃŃqu": 1667,
      "Ġliv": 1668,
      "Ġliga": 1669,
      "ĠlÃ³gica": 1670,
      "ĠligaÃ§Ã£o": 1671,
      "Ġloss": 1672,
      "Ġliber": 1673,
      "ĠlÃŃqu": 1674,
      "Ġmomento": 1675,
      "Ġmoto": 1676,
      "Ġmant": 1677,
      "Ġmachine": 1678,
      "utÃ¡veis": 1679,
      "Ġprod": 1680,
      "Ġmeio": 1681,
      "Ġmeno": 1682,
      "ĠmemÃ³": 1683,
      "Ġban": 1684,
      "Ġbai": 1685,
      "Ġbomba": 1686,
      "Ġbibl": 1687,
      "Ġ15": 1688,
      "Ġsei": 1689,
      "ĠsequÃªncias": 1690,
      "izar": 1691,
      "izando": 1692,
      "izada": 1693,
      "ĠSempre": 1694,
      "ĠSCADA": 1695,
      "istor": 1696,
      "ificar": 1697,
      "ece": 1698,
      "olva": 1699,
      "Ġgen": 1700,
      "Ġgente": 1701,
      "Ġgru": 1702,
      "ĠgrÃ¡": 1703,
      "Ġganho": 1704,
      "ĠExemplos": 1705,
      "duÃ§Ã£o": 1706,
      "tam": 1707,
      "Ġ25": 1708,
      "ĠMe": 1709,
      "Ġnovos": 1710,
      "antes": 1711,
      "antivo": 1712,
      "Ġcontat": 1713,
      "ĠcontÃ©m": 1714,
      "Ġcontinu": 1715,
      "iotec": 1716,
      "ĠperiÃ³d": 1717,
      "Ġcompon": 1718,
      "Ġcomput": 1719,
      "Ġexce": 1720,
      "Ġexpres": 1721,
      "Ġexpon": 1722,
      "otenu": 1723,
      "ensÃµes": 1724,
      "verfitting": 1725,
      "ĠTermo": 1726,
      "Ġesco": 1727,
      "Ġesfer": 1728,
      "ĠativaÃ§Ã£o": 1729,
      "Ġsou": 1730,
      "Ġresol": 1731,
      "Ġrespon": 1732,
      "ĠArduino": 1733,
      "ĠÃ¡cido": 1734,
      "Ġvariando": 1735,
      "Ã©trico": 1736,
      "orretas": 1737,
      "ĠRaspberry": 1738,
      "ĠÃī": 1739,
      "Ġtraz": 1740,
      "bulento": 1741,
      "teza": 1742,
      "Ġ36": 1743,
      "Ġpois": 1744,
      "Ġpontos": 1745,
      "Ġinterro": 1746,
      "Ġaltas": 1747,
      "Ġaltura": 1748,
      "Ġdiferentes": 1749,
      "ative": 1750,
      "Ġdesvio": 1751,
      "Ġdescen": 1752,
      "control": 1753,
      "Ġpelo": 1754,
      "Ġquadrado": 1755,
      "ĠquadrÃ¡t": 1756,
      "Ġcria": 1757,
      "Ġfluido": 1758,
      "Ġprocessa": 1759,
      "Ġprocessar": 1760,
      "nome": 1761,
      "nolog": 1762,
      "Ġpadron": 1763,
      "Ġindut": 1764,
      "Ġanos": 1765,
      "Ġanal": 1766,
      "Ġass": 1767,
      "Ġasso": 1768,
      "ĠcondiÃ§Ãµes": 1769,
      "ĠÎ»": 1770,
      "Ġproblema": 1771,
      "Ġinternet": 1772,
      "mbda": 1773,
      "Ġelemento": 1774,
      "Ġprono": 1775,
      "Ġprincipal": 1776,
      "Ġfontes": 1777,
      "Ġaprendo": 1778,
      "ReaÃ§Ã£o": 1779,
      "RegressÃ£o": 1780,
      "imentaÃ§Ã£o": 1781,
      "Ġdivide": 1782,
      "Ġservo": 1783,
      "Ġneural": 1784,
      "Ġdimens": 1785,
      "ĠrealimentaÃ§Ã£o": 1786,
      "Ġconsecut": 1787,
      "ackpro": 1788,
      "ĠlogarÃŃt": 1789,
      "args": 1790,
      "iciona": 1791,
      "Ġincorretas": 1792,
      "Ġmedida": 1793,
      "Ġtemperaturas": 1794,
      "Ġcamadas": 1795,
      "Ġpreciso": 1796,
      "Ġsubstantivo": 1797,
      "Ġordenado": 1798,
      "Ġordenada": 1799,
      "ndice": 1800,
      "Ġdefin": 1801,
      "ĠretÃ¢ngulo": 1802,
      "vitaÃ§Ã£o": 1803,
      "ĠÃŃons": 1804,
      "ĠsenÃ£o": 1805,
      "Ġoutra": 1806,
      "Ġinversor": 1807,
      "ĠpossÃŃvel": 1808,
      "Ġartigo": 1809,
      "ĠhipÃ³tese": 1810,
      "Ġobjetos": 1811,
      "Ġlimitado": 1812,
      "Ġverdadeira": 1813,
      "Ġdireta": 1814,
      "ĠQuantitative": 1815,
      "ĠmÃ©todos": 1816,
      "ĠmÃºltiplos": 1817,
      "Resolva": 1818,
      "ficiÃªncia": 1819,
      "licing": 1820,
      "off": 1821,
      "oft": 1822,
      "ĠWHER": 1823,
      "Ġjson": 1824,
      "Ġjuros": 1825,
      "Ġabsol": 1826,
      "Ġambiente": 1827,
      "Ġambientes": 1828,
      "Ġpalavra": 1829,
      "Ġpalavras": 1830,
      "ĠparÃ¢metro": 1831,
      "ĠparÃ¢metros": 1832,
      "Ġmesma": 1833,
      "Ġmesmo": 1834,
      "Ġbusca": 1835,
      "Ġ144": 1836,
      "ĠNewton": 1837,
      "Ġimport": 1838,
      "Ġdesenvolve": 1839,
      "face": 1840,
      "ĠComplexidade": 1841,
      "Ġplural": 1842,
      "Ġminuto": 1843,
      "Ġvalide": 1844,
      "Ġcolunas": 1845,
      "Ġpermanece": 1846,
      "ĠÃ¡tomos": 1847,
      "Ġarquivo": 1848,
      "Ġtrabalho": 1849,
      "ĠespecÃŃfico": 1850,
      "Ġisolado": 1851,
      "gnÃ©tico": 1852,
      "Trans": 1853,
      "pagation": 1854,
      "ubble": 1855,
      "ĠÃºn": 1856,
      "Ġdataset": 1857,
      "Ġdigital": 1858,
      "Ġaument": 1859,
      "recision": 1860,
      "Ġdetecta": 1861,
      "Ġcerteza": 1862,
      "Ġcalcul": 1863,
      "ĠcÃŃrculo": 1864,
      "Ġsolenoide": 1865,
      "Ġtupla": 1866,
      "Ġtermopar": 1867,
      "ĠoposiÃ§Ã£o": 1868,
      "Ġmicrocontrol": 1869,
      "ĠvazÃ£o": 1870,
      "ĠcombustÃ£o": 1871,
      "Ġlitros": 1872,
      "ĠmecÃ¢nica": 1873,
      "Ġsentido": 1874,
      "Ġcomprimento": 1875,
      "ĠatravÃ©": 1876,
      "ĠâĪļ(": 1877,
      "Aprendizado": 1878,
      "ĠmÃ¡quina": 1879,
      "Ġencontra": 1880,
      "neumÃ¡t": 1881,
      "oelÃ©trico": 1882,
      "work": 1883,
      "Ġdiagrama": 1884,
      "ĠamanhÃ£": 1885,
      "Ġpacot": 1886,
      "Ġdemais": 1887,
      "ĠcinÃ©tica": 1888,
      "Ġtecnolog": 1889,
      "Ġturbulento": 1890,
      "Ġtotal": 1891,
      "ĠfotoelÃ©trico": 1892,
      "ĠmudanÃ§as": 1893,
      "Ġlibera": 1894,
      "Ġmotores": 1895,
      "Ġmenores": 1896,
      "ĠmemÃ³ria": 1897,
      "Ġbibliotec": 1898,
      "ĠgrÃ¡f": 1899,
      "otenusa": 1900,
      "Ġescoamento": 1901,
      "Ġesfera": 1902,
      "Ġdescendente": 1903,
      "Ġpronome": 1904,
      "Ġconsecutivos": 1905,
      "ackpropagation": 1906,
      "ĠWHERE": 1907,
      "ĠatravÃ©s": 1908,
      "Ġbiblioteca": 1909,
      "%.": 1910,
      "',": 1911,
      "':": 1912,
      "()": 1913,
      "02": 1914,
      "13": 1915,
      "15": 1916,
      "100": 1917,
      "Arduino": 1918,
      "Batch": 1919,
      "CI": 1920,
      "Cl": 1921,
      "Co": 1922,
      "Corre": 1923,
      "Des": 1924,
      "Dist": 1925,
      "EC": 1926,
      "EL": 1927,
      "Em": 1928,
      "En": 1929,
      "Eu": 1930,
      "EST": 1931,
      "FD": 1932,
      "Flo": 1933,
      "Fil": 1934,
      "Flu": 1935,
      "GH": 1936,
      "Grad": 1937,
      "HMI": 1938,
      "Ind": 1939,
      "IGH": 1940,
      "LC": 1941,
      "Lim": 1942,
      "Mo": 1943,
      "Mat": 1944,
      "Mol": 1945,
      "Met": 1946,
      "Modbus": 1947,
      "Minha": 1948,
      "Machine": 1949,
      "NP": 1950,
      "NÃºmero": 1951,
      "OM": 1952,
      "PC": 1953,
      "PT": 1954,
      "Pa": 1955,
      "Pull": 1956,
      "ROM": 1957,
      "SH": 1958,
      "Su": 1959,
      "Ten": 1960,
      "VM": 1961,
      "VÃ¡lvula": 1962,
      "WM": 1963,
      "are": 1964,
      "ares": 1965,
      "bica": 1966,
      "bio": 1967,
      "bÃ´": 1968,
      "butos": 1969,
      "baixa": 1970,
      "cc": 1971,
      "com": 1972,
      "cri": 1973,
      "col": 1974,
      "clar": 1975,
      "cÃ³p": 1976,
      "dx": 1977,
      "dor": 1978,
      "dro": 1979,
      "dÃª": 1980,
      "ding": 1981,
      "diana": 1982,
      "eg": 1983,
      "equ": 1984,
      "eom": 1985,
      "efic": 1986,
      "ff": 1987,
      "fin": 1988,
      "flet": 1989,
      "feito": 1990,
      "fismo": 1991,
      "fere": 1992,
      "gr": 1993,
      "gad": 1994,
      "gen": 1995,
      "gine": 1996,
      "har": 1997,
      "hing": 1998,
      "haria": 1999
    },
    "merges": [
      [
        "Ġ",
        "d"
      ],
      [
        "Ã",
        "©"
      ],
      [
        "Ġ",
        "Ã©"
      ],
      [
        "Ġ",
        "e"
      ],
      [
        "Ġ",
        "a"
      ],
      [
        "q",
        "u"
      ],
      [
        "Ġ",
        "p"
      ],
      [
        "n",
        "t"
      ],
      [
        "r",
        "e"
      ],
      [
        "Ġd",
        "e"
      ],
      [
        "Ġ",
        "qu"
      ],
      [
        "Ġ",
        "c"
      ],
      [
        "o",
        "r"
      ],
      [
        "o",
        "s"
      ],
      [
        "a",
        "d"
      ],
      [
        "Ġ",
        "u"
      ],
      [
        "Ã",
        "£"
      ],
      [
        "Ã£",
        "o"
      ],
      [
        "Ġqu",
        "e"
      ],
      [
        "m",
        "a"
      ],
      [
        "e",
        "r"
      ],
      [
        "a",
        "l"
      ],
      [
        "a",
        "r"
      ],
      [
        "Ã",
        "§"
      ],
      [
        "Ġ",
        "s"
      ],
      [
        "i",
        "n"
      ],
      [
        "o",
        "n"
      ],
      [
        "m",
        "e"
      ],
      [
        "a",
        "s"
      ],
      [
        "Ġ",
        "t"
      ],
      [
        "i",
        "c"
      ],
      [
        "i",
        "s"
      ],
      [
        "Ġ",
        "o"
      ],
      [
        "Ġu",
        "m"
      ],
      [
        "Ã§",
        "Ã£o"
      ],
      [
        "r",
        "o"
      ],
      [
        "Ġ",
        "f"
      ],
      [
        "c",
        "i"
      ],
      [
        "Ġ",
        "m"
      ],
      [
        "o",
        "m"
      ],
      [
        "r",
        "a"
      ],
      [
        "Ġe",
        "m"
      ],
      [
        "d",
        "o"
      ],
      [
        "e",
        "s"
      ],
      [
        "Ġ",
        "n"
      ],
      [
        "e",
        "n"
      ],
      [
        "Ġ",
        "re"
      ],
      [
        "e",
        "m"
      ],
      [
        "l",
        "o"
      ],
      [
        "Ã",
        "¡"
      ],
      [
        "i",
        "t"
      ],
      [
        "a",
        "n"
      ],
      [
        "Ġ",
        "v"
      ],
      [
        "Ġu",
        "ma"
      ],
      [
        "d",
        "e"
      ],
      [
        "l",
        "e"
      ],
      [
        "s",
        "t"
      ],
      [
        "Ġ",
        "="
      ],
      [
        "r",
        "i"
      ],
      [
        "nt",
        "e"
      ],
      [
        "Q",
        "u"
      ],
      [
        "Ġc",
        "om"
      ],
      [
        "i",
        "d"
      ],
      [
        "l",
        "a"
      ],
      [
        "ic",
        "a"
      ],
      [
        "Ã",
        "ª"
      ],
      [
        "i",
        "v"
      ],
      [
        "me",
        "nt"
      ],
      [
        "Ġ",
        "P"
      ],
      [
        "Ġp",
        "ar"
      ],
      [
        "em",
        "p"
      ],
      [
        "ad",
        "o"
      ],
      [
        "Ã",
        "Ń"
      ],
      [
        "Ġ",
        "l"
      ],
      [
        "Ġ",
        "("
      ],
      [
        "Ġc",
        "on"
      ],
      [
        "Ġm",
        "o"
      ],
      [
        "an",
        "do"
      ],
      [
        "n",
        "ci"
      ],
      [
        "Ġ",
        "ma"
      ],
      [
        "ad",
        "a"
      ],
      [
        "u",
        "t"
      ],
      [
        "Ġp",
        "ro"
      ],
      [
        "Ġ",
        "in"
      ],
      [
        "re",
        "s"
      ],
      [
        "ad",
        "e"
      ],
      [
        "Ġ",
        "i"
      ],
      [
        "a",
        "Ã§Ã£o"
      ],
      [
        "Ġ",
        "me"
      ],
      [
        "Ġ",
        "b"
      ],
      [
        "Ġ",
        "1"
      ],
      [
        "a",
        "t"
      ],
      [
        "Ã",
        "³"
      ],
      [
        "nci",
        "a"
      ],
      [
        "Ġd",
        "o"
      ],
      [
        "ad",
        "os"
      ],
      [
        "Ġp",
        "or"
      ],
      [
        "Ġs",
        "e"
      ],
      [
        "Qu",
        "al"
      ],
      [
        "Ġpar",
        "a"
      ],
      [
        "u",
        "n"
      ],
      [
        "i",
        "a"
      ],
      [
        "Ã",
        "¢"
      ],
      [
        "Ġ",
        "E"
      ],
      [
        "i",
        "z"
      ],
      [
        "Ġ",
        "S"
      ],
      [
        "Ġc",
        "o"
      ],
      [
        "ment",
        "o"
      ],
      [
        "i",
        "g"
      ],
      [
        "is",
        "t"
      ],
      [
        "i",
        "f"
      ],
      [
        "v",
        "e"
      ],
      [
        "Ġe",
        "nt"
      ],
      [
        "id",
        "ade"
      ],
      [
        "e",
        "c"
      ],
      [
        "o",
        "l"
      ],
      [
        "Ġd",
        "a"
      ],
      [
        "Ġu",
        "s"
      ],
      [
        "o",
        "c"
      ],
      [
        "Ġd",
        "ados"
      ],
      [
        "Ġ",
        "g"
      ],
      [
        "as",
        "s"
      ],
      [
        "s",
        "Ã£o"
      ],
      [
        "Ġ",
        "x"
      ],
      [
        "Ã©",
        "t"
      ],
      [
        "t",
        "h"
      ],
      [
        "or",
        "ma"
      ],
      [
        "in",
        "g"
      ],
      [
        "i",
        "on"
      ],
      [
        "x",
        "emp"
      ],
      [
        "ĠE",
        "xemp"
      ],
      [
        "a",
        "b"
      ],
      [
        "d",
        "u"
      ],
      [
        "Ã",
        "µ"
      ],
      [
        "Ãµ",
        "es"
      ],
      [
        "t",
        "er"
      ],
      [
        "u",
        "l"
      ],
      [
        "Ãª",
        "ncia"
      ],
      [
        "ĠP",
        "y"
      ],
      [
        "Ġent",
        "re"
      ],
      [
        "ĠExemp",
        "lo"
      ],
      [
        ")",
        "."
      ],
      [
        "i",
        "m"
      ],
      [
        "t",
        "a"
      ],
      [
        "Ġ",
        "2"
      ],
      [
        "Ġ",
        "M"
      ],
      [
        "Ġ",
        "N"
      ],
      [
        "Ġn",
        "o"
      ],
      [
        "th",
        "on"
      ],
      [
        "ĠPy",
        "thon"
      ],
      [
        "e",
        "nt"
      ],
      [
        "al",
        "or"
      ],
      [
        "C",
        "om"
      ],
      [
        "i",
        "p"
      ],
      [
        "Ġs",
        "u"
      ],
      [
        "Ġt",
        "emp"
      ],
      [
        "oc",
        "Ãª"
      ],
      [
        "a",
        "nt"
      ],
      [
        "e",
        "t"
      ],
      [
        "i",
        "l"
      ],
      [
        "u",
        "la"
      ],
      [
        "Ġ",
        "L"
      ],
      [
        "re",
        "n"
      ],
      [
        "Â",
        "²"
      ],
      [
        "Ġ",
        "F"
      ],
      [
        "Ã§",
        "a"
      ],
      [
        "in",
        "a"
      ],
      [
        "Ġo",
        "u"
      ],
      [
        "Ġco",
        "nt"
      ],
      [
        "i",
        "o"
      ],
      [
        "u",
        "r"
      ],
      [
        "u",
        "ra"
      ],
      [
        "Ġp",
        "er"
      ],
      [
        "Ġcom",
        "p"
      ],
      [
        "s",
        "e"
      ],
      [
        "Ġe",
        "x"
      ],
      [
        "0",
        "0"
      ],
      [
        "s",
        "o"
      ],
      [
        "Ã",
        "º"
      ],
      [
        "ad",
        "r"
      ],
      [
        "Ã§",
        "Ãµes"
      ],
      [
        "Ġn",
        "Ã£o"
      ],
      [
        "o",
        "t"
      ],
      [
        "Ġe",
        "l"
      ],
      [
        "Ġa",
        "p"
      ],
      [
        "ic",
        "o"
      ],
      [
        "en",
        "s"
      ],
      [
        "Ġi",
        "nt"
      ],
      [
        "n",
        "s"
      ],
      [
        "v",
        "er"
      ],
      [
        "Ġ",
        "T"
      ],
      [
        "ar",
        "i"
      ],
      [
        "d",
        "a"
      ],
      [
        "Ġ",
        "+"
      ],
      [
        "Ġe",
        "s"
      ],
      [
        "Ġe",
        "st"
      ],
      [
        "Ġa",
        "t"
      ],
      [
        "Ġs",
        "o"
      ],
      [
        "Ġt",
        "re"
      ],
      [
        "Ġre",
        "s"
      ],
      [
        "Q",
        "L"
      ],
      [
        "V",
        "ocÃª"
      ],
      [
        "e",
        "nte"
      ],
      [
        "i",
        "r"
      ],
      [
        "p",
        "er"
      ],
      [
        "Ġ",
        "A"
      ],
      [
        "Ġ",
        "on"
      ],
      [
        "Ġ",
        "Ã¡"
      ],
      [
        "Ġv",
        "ari"
      ],
      [
        "le",
        "t"
      ],
      [
        "ve",
        "l"
      ],
      [
        "Ã©t",
        "r"
      ],
      [
        "a",
        "g"
      ],
      [
        "m",
        "o"
      ],
      [
        "or",
        "re"
      ],
      [
        "er",
        "o"
      ],
      [
        "Ġ",
        "4"
      ],
      [
        "Ġ",
        "C"
      ],
      [
        "Ġ",
        "R"
      ],
      [
        "Ġ",
        "os"
      ],
      [
        "Ġp",
        "os"
      ],
      [
        "Ġc",
        "a"
      ],
      [
        "as",
        "e"
      ],
      [
        "Ġf",
        "or"
      ],
      [
        "Ġmo",
        "de"
      ],
      [
        "Com",
        "o"
      ],
      [
        "Ġtemp",
        "o"
      ],
      [
        "a",
        "is"
      ],
      [
        "c",
        "e"
      ],
      [
        "h",
        "o"
      ],
      [
        "Ġ",
        "Ã"
      ],
      [
        "Ġa",
        "r"
      ],
      [
        "Ġt",
        "ra"
      ],
      [
        "res",
        "sÃ£o"
      ],
      [
        "un",
        "Ã§Ã£o"
      ],
      [
        "N",
        "Ã£o"
      ],
      [
        "b",
        "u"
      ],
      [
        "c",
        "es"
      ],
      [
        "e",
        "u"
      ],
      [
        "g",
        "u"
      ],
      [
        "p",
        "or"
      ],
      [
        "t",
        "e"
      ],
      [
        "t",
        "or"
      ],
      [
        "Ġ",
        "O"
      ],
      [
        "Ġ",
        "h"
      ],
      [
        "Ġ",
        "ra"
      ],
      [
        "Ġd",
        "os"
      ],
      [
        "Ġd",
        "if"
      ],
      [
        "it",
        "e"
      ],
      [
        "U",
        "m"
      ],
      [
        "U",
        "se"
      ],
      [
        "l",
        "u"
      ],
      [
        "p",
        "o"
      ],
      [
        "p",
        "os"
      ],
      [
        "Ġ",
        "0"
      ],
      [
        "Ġ",
        "3"
      ],
      [
        "Ġe",
        "n"
      ],
      [
        "Ġp",
        "o"
      ],
      [
        "Ġp",
        "ass"
      ],
      [
        "Ã¢",
        "n"
      ],
      [
        "Ã¢",
        "ncia"
      ],
      [
        "Ġel",
        "Ã©tr"
      ],
      [
        "Ġint",
        "er"
      ],
      [
        "f",
        "orma"
      ],
      [
        "Ġ",
        "I"
      ],
      [
        "Ġa",
        "l"
      ],
      [
        "Ġs",
        "Ã£o"
      ],
      [
        "Ġt",
        "en"
      ],
      [
        "ci",
        "on"
      ],
      [
        "iv",
        "o"
      ],
      [
        "Ġdif",
        "e"
      ],
      [
        "i",
        "Ã§Ã£o"
      ],
      [
        "r",
        "m"
      ],
      [
        "s",
        "a"
      ],
      [
        "in",
        "e"
      ],
      [
        "me",
        "t"
      ],
      [
        "id",
        "a"
      ],
      [
        "Ġno",
        "me"
      ],
      [
        "Ġtre",
        "ina"
      ],
      [
        "QL",
        "E"
      ],
      [
        "ĠÃ",
        "ł"
      ],
      [
        "c",
        "is"
      ],
      [
        "d",
        "ade"
      ],
      [
        "e",
        "ci"
      ],
      [
        "i",
        "al"
      ],
      [
        "o",
        "u"
      ],
      [
        "Ġ",
        "G"
      ],
      [
        "Ġ",
        "le"
      ],
      [
        "ic",
        "os"
      ],
      [
        "Ġn",
        "a"
      ],
      [
        "Ġcom",
        "o"
      ],
      [
        "at",
        "iv"
      ],
      [
        "Ġcont",
        "ro"
      ],
      [
        "Ġon",
        "de"
      ],
      [
        "i",
        "do"
      ],
      [
        "t",
        "as"
      ],
      [
        "Ġ",
        "-"
      ],
      [
        "Ġde",
        "s"
      ],
      [
        "ad",
        "or"
      ],
      [
        "Ġf",
        "orma"
      ],
      [
        "Ġf",
        "unÃ§Ã£o"
      ],
      [
        "Ã¡",
        "l"
      ],
      [
        "Ġus",
        "ar"
      ],
      [
        "ren",
        "Ã§a"
      ],
      [
        "Ġmode",
        "lo"
      ],
      [
        "Ġdife",
        "renÃ§a"
      ],
      [
        "Ġtreina",
        "mento"
      ],
      [
        "c",
        "a"
      ],
      [
        "c",
        "o"
      ],
      [
        "e",
        "ma"
      ],
      [
        "g",
        "ra"
      ],
      [
        "h",
        "a"
      ],
      [
        "r",
        "os"
      ],
      [
        "Ã",
        "´"
      ],
      [
        "â",
        "Ĥ"
      ],
      [
        "Ġ",
        "or"
      ],
      [
        "Ġ",
        "QLE"
      ],
      [
        "Ġp",
        "e"
      ],
      [
        "Ġp",
        "re"
      ],
      [
        "Ġc",
        "alor"
      ],
      [
        "ma",
        "n"
      ],
      [
        "me",
        "nte"
      ],
      [
        "lo",
        "g"
      ],
      [
        "it",
        "o"
      ],
      [
        "Ġmo",
        "tor"
      ],
      [
        "Ġma",
        "is"
      ],
      [
        "c",
        "h"
      ],
      [
        "e",
        "i"
      ],
      [
        "r",
        "u"
      ],
      [
        "r",
        "al"
      ],
      [
        "t",
        "o"
      ],
      [
        "Ġqu",
        "ando"
      ],
      [
        "Ġqu",
        "adr"
      ],
      [
        "Ġc",
        "ri"
      ],
      [
        "ar",
        "n"
      ],
      [
        "Ġs",
        "ig"
      ],
      [
        "Ġs",
        "ist"
      ],
      [
        "Ġf",
        "lu"
      ],
      [
        "Ġv",
        "alor"
      ],
      [
        "Qu",
        "ant"
      ],
      [
        "Ġma",
        "s"
      ],
      [
        "Ġpro",
        "ces"
      ],
      [
        "ab",
        "il"
      ],
      [
        "Ġsu",
        "b"
      ],
      [
        "Ãº",
        "m"
      ],
      [
        "ag",
        "em"
      ],
      [
        "Ġtra",
        "ns"
      ],
      [
        "Ġsist",
        "ema"
      ],
      [
        "d",
        "ia"
      ],
      [
        "j",
        "u"
      ],
      [
        "n",
        "o"
      ],
      [
        "n",
        "if"
      ],
      [
        "p",
        "res"
      ],
      [
        "Ã©",
        "dia"
      ],
      [
        "Ġp",
        "adr"
      ],
      [
        "nt",
        "o"
      ],
      [
        "nt",
        "es"
      ],
      [
        "re",
        "a"
      ],
      [
        "Ġre",
        "la"
      ],
      [
        "Ã¡",
        "vel"
      ],
      [
        "iv",
        "os"
      ],
      [
        "Ġin",
        "d"
      ],
      [
        "Ġi",
        "nte"
      ],
      [
        "ec",
        "h"
      ],
      [
        "Ġper",
        "m"
      ],
      [
        "cion",
        "al"
      ],
      [
        "Ãºm",
        "ero"
      ],
      [
        ".",
        "."
      ],
      [
        "4",
        "3"
      ],
      [
        "a",
        "i"
      ],
      [
        "v",
        "o"
      ],
      [
        "Ġe",
        "r"
      ],
      [
        "Ġa",
        "n"
      ],
      [
        "Ġa",
        "o"
      ],
      [
        "Ġa",
        "s"
      ],
      [
        "qu",
        "e"
      ],
      [
        "Ġc",
        "orre"
      ],
      [
        "in",
        "al"
      ],
      [
        "Ġm",
        "Ã©dia"
      ],
      [
        "st",
        "ri"
      ],
      [
        "ment",
        "os"
      ],
      [
        "Ġcon",
        "d"
      ],
      [
        "Ġin",
        "du"
      ],
      [
        "Ġb",
        "ase"
      ],
      [
        "Ġse",
        "u"
      ],
      [
        "ĠL",
        "ei"
      ],
      [
        "ens",
        "or"
      ],
      [
        "ĠT",
        "ech"
      ],
      [
        "Ġsig",
        "nif"
      ],
      [
        "abil",
        "idade"
      ],
      [
        ")",
        ","
      ],
      [
        "b",
        "re"
      ],
      [
        "d",
        "os"
      ],
      [
        "l",
        "os"
      ],
      [
        "p",
        "l"
      ],
      [
        "x",
        "o"
      ],
      [
        "Ġ",
        "Î"
      ],
      [
        "er",
        "g"
      ],
      [
        "Ġt",
        "a"
      ],
      [
        "Ġo",
        "b"
      ],
      [
        "Ġn",
        "Ãºmero"
      ],
      [
        "Ġl",
        "im"
      ],
      [
        "Ġma",
        "ter"
      ],
      [
        "ut",
        "o"
      ],
      [
        "Ġpro",
        "b"
      ],
      [
        "iz",
        "ado"
      ],
      [
        "ab",
        "e"
      ],
      [
        "ĠÃ¡",
        "rea"
      ],
      [
        "Ġinter",
        "n"
      ],
      [
        "Ġindu",
        "stri"
      ],
      [
        "b",
        "er"
      ],
      [
        "f",
        "er"
      ],
      [
        "m",
        "b"
      ],
      [
        "r",
        "as"
      ],
      [
        "v",
        "a"
      ],
      [
        "Ã",
        "ī"
      ],
      [
        "Ġ",
        "8"
      ],
      [
        "Ġ",
        "H"
      ],
      [
        "Ġ",
        "U"
      ],
      [
        "Ġd",
        "is"
      ],
      [
        "Ġe",
        "le"
      ],
      [
        "qu",
        "Ãª"
      ],
      [
        "Ġp",
        "r"
      ],
      [
        "ma",
        "Ã§Ã£o"
      ],
      [
        "Ġs",
        "ensor"
      ],
      [
        "Ġf",
        "o"
      ],
      [
        "Ġv",
        "e"
      ],
      [
        "Ġv",
        "er"
      ],
      [
        "Qu",
        "ando"
      ],
      [
        "Ġpar",
        "t"
      ],
      [
        "Ġcon",
        "ver"
      ],
      [
        "Ġap",
        "ren"
      ],
      [
        "ativ",
        "a"
      ],
      [
        "arn",
        "ing"
      ],
      [
        "Ġperm",
        "ite"
      ],
      [
        "erg",
        "ia"
      ],
      [
        "R",
        "e"
      ],
      [
        "c",
        "u"
      ],
      [
        "i",
        "ment"
      ],
      [
        "l",
        "ass"
      ],
      [
        "p",
        "en"
      ],
      [
        "s",
        "or"
      ],
      [
        "v",
        "is"
      ],
      [
        "Ġ",
        "/"
      ],
      [
        "Ġ",
        "5"
      ],
      [
        "Ġ",
        "6"
      ],
      [
        "Ġ",
        "J"
      ],
      [
        "Ġ",
        "â"
      ],
      [
        "Ġd",
        "iv"
      ],
      [
        "Ã©",
        "rm"
      ],
      [
        "Ġp",
        "ressÃ£o"
      ],
      [
        "Ġde",
        "ri"
      ],
      [
        "ad",
        "as"
      ],
      [
        "er",
        "at"
      ],
      [
        "Ġs",
        "er"
      ],
      [
        "on",
        "s"
      ],
      [
        "ci",
        "dade"
      ],
      [
        "Ġn",
        "e"
      ],
      [
        "it",
        "ivos"
      ],
      [
        "Qu",
        "ais"
      ],
      [
        "ÃŃ",
        "vel"
      ],
      [
        "Ġcon",
        "st"
      ],
      [
        "Ġpro",
        "por"
      ],
      [
        "Ġi",
        "m"
      ],
      [
        "Ġme",
        "de"
      ],
      [
        "Ġ1",
        "0"
      ],
      [
        "Ġ1",
        "00"
      ],
      [
        "ĠS",
        "ou"
      ],
      [
        "ol",
        "u"
      ],
      [
        "Ġus",
        "ado"
      ],
      [
        "ass",
        "i"
      ],
      [
        "ab",
        "assi"
      ],
      [
        "ur",
        "al"
      ],
      [
        "Ġvari",
        "Ã¡vel"
      ],
      [
        "gu",
        "lo"
      ],
      [
        "Ġen",
        "ergia"
      ],
      [
        "Ã¢n",
        "gulo"
      ],
      [
        "Ġten",
        "sÃ£o"
      ],
      [
        "met",
        "ro"
      ],
      [
        "ĠG",
        "abassi"
      ],
      [
        "Ġle",
        "arning"
      ],
      [
        "Ã©rm",
        "ica"
      ],
      [
        "Ġderi",
        "v"
      ],
      [
        "a",
        "nte"
      ],
      [
        "d",
        "er"
      ],
      [
        "f",
        "or"
      ],
      [
        "g",
        "ressÃ£o"
      ],
      [
        "g",
        "ral"
      ],
      [
        "i",
        "de"
      ],
      [
        "i",
        "ente"
      ],
      [
        "p",
        "a"
      ],
      [
        "r",
        "Ã¡"
      ],
      [
        "u",
        "i"
      ],
      [
        "u",
        "s"
      ],
      [
        "x",
        "a"
      ],
      [
        "Ġ",
        "D"
      ],
      [
        "Ġ",
        "V"
      ],
      [
        "Ġd",
        "i"
      ],
      [
        "Ġe",
        "qu"
      ],
      [
        "Ġqu",
        "ant"
      ],
      [
        "Ġc",
        "or"
      ],
      [
        "al",
        "o"
      ],
      [
        "Ġf",
        "re"
      ],
      [
        "Ġf",
        "Ã³"
      ],
      [
        "Ġre",
        "al"
      ],
      [
        "lo",
        "cidade"
      ],
      [
        "Ġl",
        "ing"
      ],
      [
        "Ġcon",
        "s"
      ],
      [
        "Ġme",
        "t"
      ],
      [
        "ve",
        "is"
      ],
      [
        "ĠN",
        "Ã£o"
      ],
      [
        "Ġso",
        "ma"
      ],
      [
        "Ġso",
        "bre"
      ],
      [
        "Ġres",
        "ist"
      ],
      [
        "Ġpo",
        "de"
      ],
      [
        "Ġor",
        "d"
      ],
      [
        "Ġcorre",
        "nte"
      ],
      [
        "Ġprob",
        "abilidade"
      ],
      [
        "Ġling",
        "u"
      ],
      [
        "I",
        "N"
      ],
      [
        "a",
        "c"
      ],
      [
        "a",
        "z"
      ],
      [
        "c",
        "al"
      ],
      [
        "c",
        "ul"
      ],
      [
        "d",
        "izado"
      ],
      [
        "f",
        "i"
      ],
      [
        "i",
        "or"
      ],
      [
        "i",
        "ra"
      ],
      [
        "j",
        "et"
      ],
      [
        "l",
        "ar"
      ],
      [
        "r",
        "ad"
      ],
      [
        "r",
        "ut"
      ],
      [
        "s",
        "os"
      ],
      [
        "t",
        "ion"
      ],
      [
        "u",
        "m"
      ],
      [
        "u",
        "p"
      ],
      [
        "u",
        "al"
      ],
      [
        "Ġ",
        "log"
      ],
      [
        "Ġe",
        "let"
      ],
      [
        "qu",
        "Ãªncia"
      ],
      [
        "Ġc",
        "lass"
      ],
      [
        "ar",
        "g"
      ],
      [
        "Ġs",
        "em"
      ],
      [
        "Ġs",
        "inal"
      ],
      [
        "Ġt",
        "ro"
      ],
      [
        "Ġt",
        "ip"
      ],
      [
        "ic",
        "ion"
      ],
      [
        "Ġm",
        "A"
      ],
      [
        "Ã¡",
        "ri"
      ],
      [
        "Ã¡",
        "veis"
      ],
      [
        "Ġv",
        "ocÃª"
      ],
      [
        "Ġl",
        "ist"
      ],
      [
        "Ġcon",
        "ju"
      ],
      [
        "nci",
        "as"
      ],
      [
        "Ġpro",
        "t"
      ],
      [
        "Ġin",
        "c"
      ],
      [
        "Ġin",
        "st"
      ],
      [
        "Ġme",
        "d"
      ],
      [
        "Ġ1",
        "2"
      ],
      [
        "Ã³",
        "g"
      ],
      [
        "Ġdo",
        "is"
      ],
      [
        "ig",
        "o"
      ],
      [
        "ul",
        "t"
      ],
      [
        "ĠM",
        "eu"
      ],
      [
        "Ġtemp",
        "erat"
      ],
      [
        "Ġes",
        "p"
      ],
      [
        "Ġca",
        "m"
      ],
      [
        "Ġra",
        "iz"
      ],
      [
        "rm",
        "ula"
      ],
      [
        "ine",
        "ar"
      ],
      [
        "Ġpre",
        "cis"
      ],
      [
        "Ġsub",
        "st"
      ],
      [
        "Ġsignif",
        "ica"
      ],
      [
        "Ġve",
        "locidade"
      ],
      [
        "Ġderiv",
        "ada"
      ],
      [
        "ĠfÃ³",
        "rmula"
      ],
      [
        "Ġord",
        "en"
      ],
      [
        ")",
        "?"
      ],
      [
        "I",
        "D"
      ],
      [
        "_",
        "_"
      ],
      [
        "a",
        "v"
      ],
      [
        "b",
        "o"
      ],
      [
        "d",
        "as"
      ],
      [
        "g",
        "or"
      ],
      [
        "l",
        "as"
      ],
      [
        "n",
        "d"
      ],
      [
        "n",
        "idade"
      ],
      [
        "n",
        "eci"
      ],
      [
        "o",
        "lo"
      ],
      [
        "p",
        "ar"
      ],
      [
        "p",
        "on"
      ],
      [
        "r",
        "ada"
      ],
      [
        "r",
        "ase"
      ],
      [
        "v",
        "i"
      ],
      [
        "z",
        "ero"
      ],
      [
        "Â",
        "³"
      ],
      [
        "Ġ",
        "is"
      ],
      [
        "Ġ",
        "zero"
      ],
      [
        "Ġa",
        "d"
      ],
      [
        "Ġa",
        "Ã§Ã£o"
      ],
      [
        "Ġp",
        "es"
      ],
      [
        "nt",
        "os"
      ],
      [
        "nt",
        "ro"
      ],
      [
        "Ġde",
        "f"
      ],
      [
        "Ġc",
        "ha"
      ],
      [
        "os",
        "t"
      ],
      [
        "in",
        "do"
      ],
      [
        "Ġt",
        "abe"
      ],
      [
        "ic",
        "ar"
      ],
      [
        "ic",
        "as"
      ],
      [
        "en",
        "v"
      ],
      [
        "Ġre",
        "t"
      ],
      [
        "Ġre",
        "du"
      ],
      [
        "it",
        "al"
      ],
      [
        "ri",
        "z"
      ],
      [
        "ri",
        "Ã¢ngulo"
      ],
      [
        "ica",
        "Ã§Ã£o"
      ],
      [
        "Ġl",
        "inear"
      ],
      [
        "Ġin",
        "forma"
      ],
      [
        "iz",
        "aÃ§Ã£o"
      ],
      [
        "ig",
        "a"
      ],
      [
        "Ġus",
        "ando"
      ],
      [
        "oc",
        "olo"
      ],
      [
        "ent",
        "es"
      ],
      [
        "Ġsu",
        "per"
      ],
      [
        "Ġex",
        "per"
      ],
      [
        "Ġtre",
        "in"
      ],
      [
        "Ġfor",
        "Ã§a"
      ],
      [
        "Ġfor",
        "neci"
      ],
      [
        "bu",
        "s"
      ],
      [
        "Ġh",
        "Ã¡"
      ],
      [
        "ĠelÃ©tr",
        "ica"
      ],
      [
        "Ġten",
        "ho"
      ],
      [
        "Ã´",
        "n"
      ],
      [
        "Ġpe",
        "la"
      ],
      [
        "Ġcri",
        "ada"
      ],
      [
        "Quant",
        "o"
      ],
      [
        "pres",
        "ent"
      ],
      [
        "Ġrela",
        "Ã§Ã£o"
      ],
      [
        "Ġinte",
        "gral"
      ],
      [
        "Ġindustri",
        "al"
      ],
      [
        "Ġ100",
        "0"
      ],
      [
        "Ġlingu",
        "agem"
      ],
      [
        "rut",
        "ura"
      ],
      [
        "Ġconju",
        "nto"
      ],
      [
        "Ġprot",
        "ocolo"
      ],
      [
        "'",
        "("
      ],
      [
        "A",
        "p"
      ],
      [
        "C",
        "A"
      ],
      [
        "E",
        "T"
      ],
      [
        "N",
        "N"
      ],
      [
        "O",
        "IN"
      ],
      [
        "P",
        "ro"
      ],
      [
        "a",
        "m"
      ],
      [
        "b",
        "le"
      ],
      [
        "c",
        "or"
      ],
      [
        "c",
        "tion"
      ],
      [
        "g",
        "n"
      ],
      [
        "g",
        "ul"
      ],
      [
        "h",
        "eci"
      ],
      [
        "i",
        "ro"
      ],
      [
        "l",
        "t"
      ],
      [
        "m",
        "ica"
      ],
      [
        "o",
        "d"
      ],
      [
        "t",
        "ar"
      ],
      [
        "t",
        "ec"
      ],
      [
        "v",
        "it"
      ],
      [
        "v",
        "ula"
      ],
      [
        "v",
        "io"
      ],
      [
        "Ġ",
        "B"
      ],
      [
        "Ġ",
        "K"
      ],
      [
        "Ġ",
        "lo"
      ],
      [
        "Ġ",
        "ÃŃ"
      ],
      [
        "Ġ",
        "Quant"
      ],
      [
        "Ġ",
        ".."
      ],
      [
        "Ġd",
        "ist"
      ],
      [
        "Ġd",
        "ura"
      ],
      [
        "Ã©",
        "r"
      ],
      [
        "Ġa",
        "ce"
      ],
      [
        "Ġp",
        "ri"
      ],
      [
        "Ġp",
        "la"
      ],
      [
        "Ġqu",
        "al"
      ],
      [
        "Ġc",
        "ent"
      ],
      [
        "er",
        "mo"
      ],
      [
        "al",
        "av"
      ],
      [
        "Ġs",
        "a"
      ],
      [
        "Ġs",
        "en"
      ],
      [
        "Ġt",
        "o"
      ],
      [
        "Ġt",
        "em"
      ],
      [
        "Ġt",
        "Ã©rmica"
      ],
      [
        "Ġo",
        "ut"
      ],
      [
        "Ġo",
        "per"
      ],
      [
        "Ġm",
        "Ã©t"
      ],
      [
        "Ġm",
        "Ãº"
      ],
      [
        "en",
        "as"
      ],
      [
        "Ġre",
        "de"
      ],
      [
        "Ã¡",
        "t"
      ],
      [
        "le",
        "x"
      ],
      [
        "Ġcom",
        "un"
      ],
      [
        "id",
        "os"
      ],
      [
        "ÃŃ",
        "f"
      ],
      [
        "Ġcon",
        "fi"
      ],
      [
        "Ġmo",
        "vi"
      ],
      [
        "Ġma",
        "ior"
      ],
      [
        "Ġpro",
        "gra"
      ],
      [
        "Ġin",
        "ver"
      ],
      [
        "Ã³",
        "d"
      ],
      [
        "iz",
        "a"
      ],
      [
        "ĠS",
        "e"
      ],
      [
        "Ġco",
        "me"
      ],
      [
        "Ġent",
        "rada"
      ],
      [
        "Ġg",
        "er"
      ],
      [
        "Ġg",
        "ra"
      ],
      [
        "Ġap",
        "enas"
      ],
      [
        "Ġest",
        "rutura"
      ],
      [
        "Ġres",
        "pos"
      ],
      [
        "Ġvari",
        "aÃ§Ã£o"
      ],
      [
        "Ġpos",
        "s"
      ],
      [
        "Ġar",
        "t"
      ],
      [
        "Ġh",
        "ip"
      ],
      [
        "Ġpass",
        "o"
      ],
      [
        "ĠelÃ©tr",
        "ons"
      ],
      [
        "Ġcontro",
        "le"
      ],
      [
        "Ã¡l",
        "vula"
      ],
      [
        "âĤ",
        "Ĥ"
      ],
      [
        "Ġflu",
        "xo"
      ],
      [
        "Ġpadr",
        "Ã£o"
      ],
      [
        "Ġer",
        "ro"
      ],
      [
        "Ġbase",
        "ado"
      ],
      [
        "ĠÎ",
        "Ķ"
      ],
      [
        "Ġob",
        "jet"
      ],
      [
        "Ġlim",
        "it"
      ],
      [
        "Ġmater",
        "ial"
      ],
      [
        "quÃª",
        "ncias"
      ],
      [
        "Ġver",
        "dade"
      ],
      [
        "Ġconver",
        "te"
      ],
      [
        "iment",
        "al"
      ],
      [
        "Ġconst",
        "ante"
      ],
      [
        "Ġpropor",
        "cional"
      ],
      [
        "Ġdi",
        "re"
      ],
      [
        "Ġelet",
        "ro"
      ],
      [
        "Ġtip",
        "os"
      ],
      [
        "Ã³g",
        "ica"
      ],
      [
        "Ġexper",
        "imental"
      ],
      [
        "lt",
        "ip"
      ],
      [
        "ĠQuant",
        "it"
      ],
      [
        "Ġ..",
        "."
      ],
      [
        "Ġdura",
        "nte"
      ],
      [
        "ĠmÃ©t",
        "o"
      ],
      [
        "ĠmÃº",
        "ltip"
      ],
      [
        "Ġmovi",
        "mento"
      ],
      [
        ")",
        "/"
      ],
      [
        "D",
        "A"
      ],
      [
        "F",
        "unÃ§Ã£o"
      ],
      [
        "M",
        "e"
      ],
      [
        "M",
        "eu"
      ],
      [
        "R",
        "es"
      ],
      [
        "e",
        "l"
      ],
      [
        "f",
        "ic"
      ],
      [
        "i",
        "ma"
      ],
      [
        "i",
        "an"
      ],
      [
        "i",
        "Ã§Ãµes"
      ],
      [
        "l",
        "er"
      ],
      [
        "l",
        "ic"
      ],
      [
        "o",
        "f"
      ],
      [
        "o",
        "p"
      ],
      [
        "p",
        "ri"
      ],
      [
        "r",
        "y"
      ],
      [
        "r",
        "vo"
      ],
      [
        "s",
        "er"
      ],
      [
        "t",
        "ivo"
      ],
      [
        "u",
        "d"
      ],
      [
        "Ġ",
        "W"
      ],
      [
        "Ġ",
        "j"
      ],
      [
        "Ġ",
        "let"
      ],
      [
        "Ġd",
        "as"
      ],
      [
        "Ã©",
        "m"
      ],
      [
        "Ġa",
        "b"
      ],
      [
        "Ġa",
        "ces"
      ],
      [
        "Ġa",
        "uto"
      ],
      [
        "Ġa",
        "mb"
      ],
      [
        "Ġp",
        "ot"
      ],
      [
        "Ġp",
        "alav"
      ],
      [
        "Ġde",
        "forma"
      ],
      [
        "Ã§",
        "o"
      ],
      [
        "Ġs",
        "im"
      ],
      [
        "in",
        "o"
      ],
      [
        "on",
        "g"
      ],
      [
        "me",
        "ns"
      ],
      [
        "Ġt",
        "riÃ¢ngulo"
      ],
      [
        "is",
        "e"
      ],
      [
        "Ġm",
        "Ã¡"
      ],
      [
        "Ġm",
        "Ã³"
      ],
      [
        "Ġre",
        "present"
      ],
      [
        "Ġv",
        "olu"
      ],
      [
        "de",
        "nte"
      ],
      [
        "st",
        "ica"
      ],
      [
        "ri",
        "bu"
      ],
      [
        "iv",
        "a"
      ],
      [
        "Ġpar",
        "Ã¢"
      ],
      [
        "ado",
        "res"
      ],
      [
        "ÃŃ",
        "t"
      ],
      [
        "Ġcon",
        "heci"
      ],
      [
        "ut",
        "or"
      ],
      [
        "Ġme",
        "s"
      ],
      [
        "Ġb",
        "in"
      ],
      [
        "Ġb",
        "us"
      ],
      [
        "Ġ1",
        "4"
      ],
      [
        "at",
        "ion"
      ],
      [
        "Ã³",
        "s"
      ],
      [
        "Ã³",
        "t"
      ],
      [
        "Ġse",
        "t"
      ],
      [
        "ia",
        "is"
      ],
      [
        "ĠS",
        "QL"
      ],
      [
        "ig",
        "aÃ§Ã£o"
      ],
      [
        "Ġg",
        "rad"
      ],
      [
        "Ã©t",
        "ica"
      ],
      [
        "ĠN",
        "e"
      ],
      [
        "Ġsu",
        "a"
      ],
      [
        "Ġcomp",
        "ar"
      ],
      [
        "ĠR",
        "e"
      ],
      [
        "Ġpos",
        "itivos"
      ],
      [
        "bu",
        "st"
      ],
      [
        "Ġcontro",
        "la"
      ],
      [
        "Ġdes",
        "env"
      ],
      [
        "âĤ",
        "ģ"
      ],
      [
        "ch",
        "ine"
      ],
      [
        "Ġquadr",
        "ada"
      ],
      [
        "Ġer",
        "ros"
      ],
      [
        "pl",
        "es"
      ],
      [
        "Ġta",
        "xa"
      ],
      [
        "Ġlim",
        "ite"
      ],
      [
        "Ġmater",
        "iais"
      ],
      [
        "fer",
        "Ãªncia"
      ],
      [
        "ĠU",
        "nidade"
      ],
      [
        "Ġdis",
        "pos"
      ],
      [
        "Ġapren",
        "dizado"
      ],
      [
        "ĠJ",
        "OIN"
      ],
      [
        "Ġdiv",
        "id"
      ],
      [
        "Ġim",
        "por"
      ],
      [
        "Ġequ",
        "aÃ§Ã£o"
      ],
      [
        "Ġcor",
        "po"
      ],
      [
        "alo",
        "res"
      ],
      [
        "Ġfre",
        "quÃªncia"
      ],
      [
        "Ġmet",
        "Ã¡l"
      ],
      [
        "Ġresist",
        "Ãªncia"
      ],
      [
        "Ġinst",
        "ru"
      ],
      [
        "Ġtemperat",
        "ura"
      ],
      [
        "gor",
        "it"
      ],
      [
        "Ġpes",
        "os"
      ],
      [
        "ntro",
        "l"
      ],
      [
        "Ġtabe",
        "la"
      ],
      [
        "Ġredu",
        "z"
      ],
      [
        "Ġinforma",
        "Ã§Ãµes"
      ],
      [
        "Ġforneci",
        "dos"
      ],
      [
        "od",
        "bus"
      ],
      [
        "Ġcomun",
        "icaÃ§Ã£o"
      ],
      [
        "Ġcome",
        "ter"
      ],
      [
        "ian",
        "a"
      ],
      [
        "Ġauto",
        "maÃ§Ã£o"
      ],
      [
        "Ġsim",
        "ples"
      ],
      [
        "ĠmÃ³",
        "du"
      ],
      [
        "Ġvolu",
        "me"
      ],
      [
        "Ġdesenv",
        "ol"
      ],
      [
        "1",
        "0"
      ],
      [
        "2",
        "0"
      ],
      [
        "E",
        "R"
      ],
      [
        "S",
        "T"
      ],
      [
        "S",
        "im"
      ],
      [
        "b",
        "al"
      ],
      [
        "c",
        "on"
      ],
      [
        "c",
        "orre"
      ],
      [
        "c",
        "Ã¢n"
      ],
      [
        "e",
        "ito"
      ],
      [
        "f",
        "a"
      ],
      [
        "f",
        "it"
      ],
      [
        "g",
        "e"
      ],
      [
        "g",
        "ente"
      ],
      [
        "h",
        "or"
      ],
      [
        "i",
        "Ã£o"
      ],
      [
        "i",
        "entes"
      ],
      [
        "l",
        "un"
      ],
      [
        "n",
        "os"
      ],
      [
        "o",
        "g"
      ],
      [
        "p",
        "ro"
      ],
      [
        "r",
        "du"
      ],
      [
        "s",
        "ar"
      ],
      [
        "s",
        "on"
      ],
      [
        "t",
        "om"
      ],
      [
        "t",
        "ing"
      ],
      [
        "u",
        "as"
      ],
      [
        "u",
        "ito"
      ],
      [
        "Ġ",
        "7"
      ],
      [
        "Ġ",
        "Q"
      ],
      [
        "Ġ",
        "Ï"
      ],
      [
        "Ġ",
        "ro"
      ],
      [
        "Ġ",
        "Com"
      ],
      [
        "Ġ",
        "Ã¢n"
      ],
      [
        "Ī",
        "«"
      ],
      [
        "ī",
        "ł"
      ],
      [
        "Ġd",
        "uas"
      ],
      [
        "Ġa",
        "ju"
      ],
      [
        "Ġp",
        "l"
      ],
      [
        "nt",
        "er"
      ],
      [
        "re",
        "st"
      ],
      [
        "Ġde",
        "cis"
      ],
      [
        "Ġqu",
        "Ãª"
      ],
      [
        "Ġc",
        "arg"
      ],
      [
        "Ġc",
        "rase"
      ],
      [
        "os",
        "s"
      ],
      [
        "ar",
        "ia"
      ],
      [
        "Ã§",
        "as"
      ],
      [
        "in",
        "u"
      ],
      [
        "in",
        "Ã¢"
      ],
      [
        "in",
        "ha"
      ],
      [
        "Ġt",
        "e"
      ],
      [
        "ic",
        "ial"
      ],
      [
        "is",
        "mo"
      ],
      [
        "Ġo",
        "corre"
      ],
      [
        "Ġf",
        "al"
      ],
      [
        "ci",
        "p"
      ],
      [
        "Ġm",
        "in"
      ],
      [
        "om",
        "b"
      ],
      [
        "en",
        "u"
      ],
      [
        "en",
        "do"
      ],
      [
        "Ġre",
        "d"
      ],
      [
        "Ġre",
        "aÃ§Ã£o"
      ],
      [
        "Ġv",
        "al"
      ],
      [
        "Ġv",
        "Ã¡lvula"
      ],
      [
        "Ġv",
        "alores"
      ],
      [
        "ri",
        "a"
      ],
      [
        "Qu",
        "em"
      ],
      [
        "id",
        "ad"
      ],
      [
        "ĠP",
        "ID"
      ],
      [
        "emp",
        "re"
      ],
      [
        "ÃŃ",
        "m"
      ],
      [
        "ÃŃ",
        "ci"
      ],
      [
        "ÃŃ",
        "da"
      ],
      [
        "Ġmo",
        "l"
      ],
      [
        "ut",
        "ador"
      ],
      [
        "Ġin",
        "de"
      ],
      [
        "Ġi",
        "gu"
      ],
      [
        "Ġme",
        "u"
      ],
      [
        "at",
        "or"
      ],
      [
        "ia",
        "gra"
      ],
      [
        "Ġco",
        "lun"
      ],
      [
        "ec",
        "ut"
      ],
      [
        "ec",
        "ÃŃf"
      ],
      [
        "Ġus",
        "a"
      ],
      [
        "Ġus",
        "ada"
      ],
      [
        "orma",
        "l"
      ],
      [
        "ul",
        "l"
      ],
      [
        "ĠM",
        "ot"
      ],
      [
        "ula",
        "Ã§Ã£o"
      ],
      [
        "ur",
        "os"
      ],
      [
        "Ġper",
        "man"
      ],
      [
        "Ġcomp",
        "let"
      ],
      [
        "ens",
        "idade"
      ],
      [
        "Ġat",
        "u"
      ],
      [
        "ĠÃ¡",
        "tom"
      ],
      [
        "Ġpos",
        "so"
      ],
      [
        "Ġca",
        "p"
      ],
      [
        "Ġca",
        "pa"
      ],
      [
        "Ġar",
        "qu"
      ],
      [
        "Ġtra",
        "bal"
      ],
      [
        "Ġen",
        "co"
      ],
      [
        "Ġpass",
        "agem"
      ],
      [
        "ĠelÃ©tr",
        "icos"
      ],
      [
        "ĠI",
        "A"
      ],
      [
        "Ġal",
        "ter"
      ],
      [
        "Ġal",
        "gorit"
      ],
      [
        "Ġpre",
        "vis"
      ],
      [
        "Ġflu",
        "idos"
      ],
      [
        "Ġpadr",
        "Ãµes"
      ],
      [
        "Ġind",
        "icar"
      ],
      [
        "Ġcond",
        "iÃ§Ã£o"
      ],
      [
        "Ġsignif",
        "ic"
      ],
      [
        "Ġintern",
        "a"
      ],
      [
        "Ġintern",
        "os"
      ],
      [
        "Ġindustri",
        "ais"
      ],
      [
        "Ġele",
        "mentos"
      ],
      [
        "Ġpart",
        "ida"
      ],
      [
        "vis",
        "ion"
      ],
      [
        "Ġâ",
        "īł"
      ],
      [
        "for",
        "Ã§o"
      ],
      [
        "Ġquant",
        "idade"
      ],
      [
        "Ġtro",
        "ca"
      ],
      [
        "Ġlist",
        "a"
      ],
      [
        "Ġesp",
        "ecÃŃf"
      ],
      [
        "Ġsubst",
        "Ã¢ncia"
      ],
      [
        "Ġis",
        "ol"
      ],
      [
        "ost",
        "ra"
      ],
      [
        "Ġsuper",
        "vision"
      ],
      [
        "Ġtrein",
        "ada"
      ],
      [
        "gn",
        "Ã©t"
      ],
      [
        "gul",
        "os"
      ],
      [
        "lex",
        "idade"
      ],
      [
        "Ġprogra",
        "maÃ§Ã£o"
      ],
      [
        "Ġger",
        "ar"
      ],
      [
        "Ġrespos",
        "tas"
      ],
      [
        "Ġaces",
        "so"
      ],
      [
        "Ġpot",
        "Ãªncia"
      ],
      [
        "Ġdispos",
        "itivos"
      ],
      [
        "fit",
        "ting"
      ],
      [
        "rdu",
        "ino"
      ],
      [
        "ĠÃ¢n",
        "gulos"
      ],
      [
        "Ġaju",
        "st"
      ],
      [
        "Ġdecis",
        "Ã£o"
      ],
      [
        "Ġigu",
        "al"
      ],
      [
        "Ġcomplet",
        "o"
      ],
      [
        ")",
        ":"
      ],
      [
        "E",
        "st"
      ],
      [
        "F",
        "ui"
      ],
      [
        "L",
        "U"
      ],
      [
        "M",
        "I"
      ],
      [
        "P",
        "or"
      ],
      [
        "P",
        "ar"
      ],
      [
        "R",
        "ec"
      ],
      [
        "S",
        "E"
      ],
      [
        "S",
        "e"
      ],
      [
        "T",
        "ra"
      ],
      [
        "U",
        "ma"
      ],
      [
        "a",
        "mento"
      ],
      [
        "a",
        "Ã§Ãµes"
      ],
      [
        "c",
        "ent"
      ],
      [
        "e",
        "d"
      ],
      [
        "e",
        "p"
      ],
      [
        "e",
        "re"
      ],
      [
        "g",
        "an"
      ],
      [
        "g",
        "un"
      ],
      [
        "h",
        "as"
      ],
      [
        "i",
        "nt"
      ],
      [
        "l",
        "ig"
      ],
      [
        "l",
        "hor"
      ],
      [
        "m",
        "p"
      ],
      [
        "m",
        "ina"
      ],
      [
        "p",
        "y"
      ],
      [
        "p",
        "ag"
      ],
      [
        "p",
        "ber"
      ],
      [
        "p",
        "lexidade"
      ],
      [
        "t",
        "ro"
      ],
      [
        "t",
        "il"
      ],
      [
        "t",
        "ura"
      ],
      [
        "t",
        "riz"
      ],
      [
        "u",
        "b"
      ],
      [
        "u",
        "z"
      ],
      [
        "v",
        "ando"
      ],
      [
        "x",
        "id"
      ],
      [
        "x",
        "im"
      ],
      [
        "x",
        "ima"
      ],
      [
        "z",
        "en"
      ],
      [
        "Â",
        "°"
      ],
      [
        "Î",
        "Ķ"
      ],
      [
        "â",
        "Ī«"
      ],
      [
        "Ġ",
        "9"
      ],
      [
        "Ġ",
        ">"
      ],
      [
        "Ġ",
        "k"
      ],
      [
        "Ġ",
        "Ãº"
      ],
      [
        "Ģ",
        "r"
      ],
      [
        "Ī",
        "ļ"
      ],
      [
        "Ġd",
        "x"
      ],
      [
        "Ġd",
        "at"
      ],
      [
        "Ġd",
        "ig"
      ],
      [
        "Ġd",
        "io"
      ],
      [
        "Ġa",
        "m"
      ],
      [
        "Ġa",
        "u"
      ],
      [
        "Ġa",
        "x"
      ],
      [
        "re",
        "cis"
      ],
      [
        "Ġde",
        "pen"
      ],
      [
        "Ġde",
        "tec"
      ],
      [
        "Ġc",
        "er"
      ],
      [
        "Ġc",
        "al"
      ],
      [
        "Ġc",
        "ÃŃ"
      ],
      [
        "Ġc",
        "Ã³d"
      ],
      [
        "or",
        "t"
      ],
      [
        "os",
        "so"
      ],
      [
        "Ġu",
        "n"
      ],
      [
        "ma",
        "zen"
      ],
      [
        "er",
        "m"
      ],
      [
        "Ġs",
        "ol"
      ],
      [
        "Ġs",
        "olu"
      ],
      [
        "Ġs",
        "tar"
      ],
      [
        "Ġs",
        "ort"
      ],
      [
        "in",
        "it"
      ],
      [
        "in",
        "cip"
      ],
      [
        "on",
        "o"
      ],
      [
        "me",
        "iro"
      ],
      [
        "as",
        "pber"
      ],
      [
        "Ġt",
        "up"
      ],
      [
        "Ġt",
        "ermo"
      ],
      [
        "ic",
        "ro"
      ],
      [
        "Ġo",
        "pos"
      ],
      [
        "Ġf",
        "ÃŃ"
      ],
      [
        "Ġf",
        "un"
      ],
      [
        "Ġf",
        "il"
      ],
      [
        "Ġf",
        "az"
      ],
      [
        "ci",
        "do"
      ],
      [
        "Ġm",
        "icro"
      ],
      [
        "es",
        "e"
      ],
      [
        "Ġn",
        "ula"
      ],
      [
        "Ġn",
        "ormal"
      ],
      [
        "Ġre",
        "cal"
      ],
      [
        "an",
        "Ã§a"
      ],
      [
        "Ġv",
        "ai"
      ],
      [
        "Ġv",
        "az"
      ],
      [
        "le",
        "ta"
      ],
      [
        "Ġcom",
        "bust"
      ],
      [
        "Ãª",
        "s"
      ],
      [
        "ĠP",
        "i"
      ],
      [
        "ĠP",
        "or"
      ],
      [
        "ĠP",
        "ro"
      ],
      [
        "Ġpar",
        "te"
      ],
      [
        "ÃŃ",
        "metro"
      ],
      [
        "ÃŃ",
        "stica"
      ],
      [
        "Ġl",
        "it"
      ],
      [
        "Ġl",
        "ong"
      ],
      [
        "Ġl",
        "uz"
      ],
      [
        "Ġmo",
        "lar"
      ],
      [
        "Ġma",
        "triz"
      ],
      [
        "ut",
        "os"
      ],
      [
        "Ġme",
        "cÃ¢n"
      ],
      [
        "Ġme",
        "nos"
      ],
      [
        "Ġme",
        "lhor"
      ],
      [
        "at",
        "ch"
      ],
      [
        "Ã³",
        "p"
      ],
      [
        "Ġpor",
        "que"
      ],
      [
        "Ġpor",
        "quÃª"
      ],
      [
        "Ġse",
        "nt"
      ],
      [
        "ĠE",
        "st"
      ],
      [
        "if",
        "icial"
      ],
      [
        "ion",
        "al"
      ],
      [
        "ta",
        "nte"
      ],
      [
        "ta",
        "forma"
      ],
      [
        "Ġ2",
        "7"
      ],
      [
        "Ġ2",
        "00"
      ],
      [
        "ĠM",
        "odbus"
      ],
      [
        "ĠL",
        "Ã³gica"
      ],
      [
        "ĠL",
        "og"
      ],
      [
        "ur",
        "as"
      ],
      [
        "Ġcomp",
        "ri"
      ],
      [
        "Ġint",
        "ensidade"
      ],
      [
        "Ġat",
        "ra"
      ],
      [
        "Ġat",
        "ual"
      ],
      [
        "ir",
        "os"
      ],
      [
        "ir",
        "cu"
      ],
      [
        "Ġon",
        "da"
      ],
      [
        "ĠÃ¡",
        "rvo"
      ],
      [
        "Ġvari",
        "Ã¢ncia"
      ],
      [
        "ĠC",
        "o"
      ],
      [
        "Ġpos",
        "iÃ§Ã£o"
      ],
      [
        "Ġmode",
        "la"
      ],
      [
        "Ġar",
        "mazen"
      ],
      [
        "Ġpo",
        "p"
      ],
      [
        "Ġpass",
        "a"
      ],
      [
        "met",
        "ros"
      ],
      [
        "eci",
        "al"
      ],
      [
        "Ġcontro",
        "l"
      ],
      [
        "Ã¡l",
        "ise"
      ],
      [
        "Ġor",
        "gan"
      ],
      [
        "man",
        "ho"
      ],
      [
        "Ġquadr",
        "ados"
      ],
      [
        "Ġmas",
        "sa"
      ],
      [
        "Ġproces",
        "so"
      ],
      [
        "Ġproces",
        "sos"
      ],
      [
        "Ġtrans",
        "ferÃªncia"
      ],
      [
        "Ġsistema",
        "s"
      ],
      [
        "Ġrela",
        "cion"
      ],
      [
        "Ġind",
        "ica"
      ],
      [
        "Ġinte",
        "lig"
      ],
      [
        "ai",
        "xa"
      ],
      [
        "Ġan",
        "Ã¡lise"
      ],
      [
        "Ġta",
        "manho"
      ],
      [
        "Ġpr",
        "Ã³"
      ],
      [
        "Ġfo",
        "i"
      ],
      [
        "cu",
        "lo"
      ],
      [
        "Ġâ",
        "Īļ"
      ],
      [
        "Ġpropor",
        "Ã§Ã£o"
      ],
      [
        "rÃ¡",
        "s"
      ],
      [
        "Ġfre",
        "quÃªncias"
      ],
      [
        "Ġresist",
        "or"
      ],
      [
        "Ġclass",
        "e"
      ],
      [
        "Ġtro",
        "c"
      ],
      [
        "Ã¡ri",
        "a"
      ],
      [
        "Ã¡ri",
        "o"
      ],
      [
        "Ġmed",
        "iana"
      ],
      [
        "Ġesp",
        "ecial"
      ],
      [
        "Ġcam",
        "po"
      ],
      [
        "Ã´n",
        "ica"
      ],
      [
        "Ap",
        "ren"
      ],
      [
        "CA",
        "DA"
      ],
      [
        "Ġlo",
        "op"
      ],
      [
        "Ġdist",
        "Ã¢ncia"
      ],
      [
        "Ġace",
        "ler"
      ],
      [
        "Ġpri",
        "meiro"
      ],
      [
        "Ġpla",
        "taforma"
      ],
      [
        "Ġcent",
        "ral"
      ],
      [
        "Ġsa",
        "ÃŃda"
      ],
      [
        "Ġart",
        "ificial"
      ],
      [
        "Ġobjet",
        "o"
      ],
      [
        "Ġverdade",
        "iros"
      ],
      [
        "Ġeletro",
        "ma"
      ],
      [
        "ĠQuantit",
        "ativa"
      ],
      [
        "ĠmÃ©to",
        "do"
      ],
      [
        "ĠmÃºltip",
        "las"
      ],
      [
        "Ġlet",
        "ra"
      ],
      [
        "Ġdeforma",
        "Ã§Ã£o"
      ],
      [
        "ĠmÃ¡",
        "qu"
      ],
      [
        "ribu",
        "iÃ§Ã£o"
      ],
      [
        "Ġconheci",
        "mento"
      ],
      [
        "Ġbin",
        "Ã¡ria"
      ],
      [
        "Ã³t",
        "ese"
      ],
      [
        "Ġgrad",
        "iente"
      ],
      [
        "ĠmetÃ¡l",
        "icos"
      ],
      [
        "Ġinstru",
        "mento"
      ],
      [
        "ĠmÃ³du",
        "lo"
      ],
      [
        "Ġcarg",
        "as"
      ],
      [
        "omb",
        "a"
      ],
      [
        "Ġred",
        "es"
      ],
      [
        "Ġinde",
        "pen"
      ],
      [
        "ĠMot",
        "or"
      ],
      [
        "Ġcap",
        "ital"
      ],
      [
        "Ġcapa",
        "ci"
      ],
      [
        "Ġenco",
        "nt"
      ],
      [
        "Ġalgorit",
        "mo"
      ],
      [
        "Ġprevis",
        "Ã£o"
      ],
      [
        "Ġsupervision",
        "ado"
      ],
      [
        "mina",
        "nte"
      ],
      [
        "xid",
        "aÃ§Ã£o"
      ],
      [
        "Ġdio",
        "do"
      ],
      [
        "ĠcÃ³d",
        "igo"
      ],
      [
        "Ġsolu",
        "Ã§Ã£o"
      ],
      [
        "incip",
        "al"
      ],
      [
        "aspber",
        "ry"
      ],
      [
        "ĠfÃŃ",
        "s"
      ],
      [
        "Ġrecal",
        "l"
      ],
      [
        "ĠLog",
        "ic"
      ],
      [
        "ircu",
        "ito"
      ],
      [
        "Ġintelig",
        "Ãªncia"
      ],
      [
        "'",
        ")."
      ],
      [
        "(",
        "'"
      ],
      [
        "*",
        "*"
      ],
      [
        "C",
        "on"
      ],
      [
        "D",
        "e"
      ],
      [
        "E",
        "D"
      ],
      [
        "F",
        "ET"
      ],
      [
        "H",
        "ip"
      ],
      [
        "H",
        "ER"
      ],
      [
        "I",
        "n"
      ],
      [
        "L",
        "P"
      ],
      [
        "L",
        "igaÃ§Ã£o"
      ],
      [
        "O",
        "N"
      ],
      [
        "P",
        "I"
      ],
      [
        "P",
        "y"
      ],
      [
        "S",
        "eu"
      ],
      [
        "S",
        "ON"
      ],
      [
        "T",
        "D"
      ],
      [
        "T",
        "or"
      ],
      [
        "]",
        "."
      ],
      [
        "a",
        "cional"
      ],
      [
        "a",
        "chine"
      ],
      [
        "b",
        "l"
      ],
      [
        "c",
        "y"
      ],
      [
        "c",
        "re"
      ],
      [
        "c",
        "os"
      ],
      [
        "c",
        "en"
      ],
      [
        "c",
        "ula"
      ],
      [
        "d",
        "em"
      ],
      [
        "d",
        "utor"
      ],
      [
        "d",
        "inÃ¢"
      ],
      [
        "e",
        "a"
      ],
      [
        "e",
        "o"
      ],
      [
        "f",
        "o"
      ],
      [
        "f",
        "un"
      ],
      [
        "g",
        "ativ"
      ],
      [
        "h",
        "m"
      ],
      [
        "h",
        "Ã£"
      ],
      [
        "i",
        "me"
      ],
      [
        "i",
        "le"
      ],
      [
        "i",
        "Ãªncia"
      ],
      [
        "i",
        "ber"
      ],
      [
        "i",
        "Ã³d"
      ],
      [
        "i",
        "bl"
      ],
      [
        "j",
        "eito"
      ],
      [
        "k",
        "pro"
      ],
      [
        "l",
        "f"
      ],
      [
        "l",
        "Ã¡"
      ],
      [
        "m",
        "in"
      ],
      [
        "m",
        "is"
      ],
      [
        "m",
        "ada"
      ],
      [
        "m",
        "Ã³"
      ],
      [
        "m",
        "ico"
      ],
      [
        "m",
        "Ã¡t"
      ],
      [
        "n",
        "a"
      ],
      [
        "n",
        "et"
      ],
      [
        "n",
        "eu"
      ],
      [
        "o",
        "T"
      ],
      [
        "o",
        "k"
      ],
      [
        "o",
        "ide"
      ],
      [
        "o",
        "el"
      ],
      [
        "p",
        "e"
      ],
      [
        "r",
        "Ãªs"
      ],
      [
        "r",
        "culo"
      ],
      [
        "s",
        "ol"
      ],
      [
        "t",
        "re"
      ],
      [
        "t",
        "on"
      ],
      [
        "t",
        "ic"
      ],
      [
        "t",
        "Ã¢ncia"
      ],
      [
        "t",
        "ida"
      ],
      [
        "t",
        "ual"
      ],
      [
        "u",
        "g"
      ],
      [
        "u",
        "nci"
      ],
      [
        "u",
        "so"
      ],
      [
        "u",
        "man"
      ],
      [
        "v",
        "Ã©"
      ],
      [
        "v",
        "os"
      ],
      [
        "v",
        "al"
      ],
      [
        "v",
        "ado"
      ],
      [
        "v",
        "alor"
      ],
      [
        "v",
        "ido"
      ],
      [
        "v",
        "alo"
      ],
      [
        "w",
        "or"
      ],
      [
        "w",
        "ton"
      ],
      [
        "x",
        "to"
      ],
      [
        "z",
        "a"
      ],
      [
        "z",
        "es"
      ],
      [
        "Ã",
        "ģ"
      ],
      [
        "Ï",
        "Ģr"
      ],
      [
        "â",
        "ģ"
      ],
      [
        "Ġ",
        "'"
      ],
      [
        "Ġ",
        "r"
      ],
      [
        "Ġ",
        "la"
      ],
      [
        "Ġ",
        "__"
      ],
      [
        "Ġd",
        "im"
      ],
      [
        "Ġd",
        "iagra"
      ],
      [
        "Ġe",
        "ve"
      ],
      [
        "Ġe",
        "vit"
      ],
      [
        "Ġa",
        "qu"
      ],
      [
        "Ġa",
        "man"
      ],
      [
        "Ġa",
        "ntes"
      ],
      [
        "Ġa",
        "ber"
      ],
      [
        "Ġa",
        "gente"
      ],
      [
        "qu",
        "en"
      ],
      [
        "Ġp",
        "H"
      ],
      [
        "Ġp",
        "ac"
      ],
      [
        "re",
        "ma"
      ],
      [
        "re",
        "ntes"
      ],
      [
        "Ġde",
        "ma"
      ],
      [
        "Ġde",
        "ter"
      ],
      [
        "Ġde",
        "cor"
      ],
      [
        "Ġde",
        "ep"
      ],
      [
        "Ġc",
        "h"
      ],
      [
        "Ġc",
        "os"
      ],
      [
        "Ġc",
        "in"
      ],
      [
        "Ġc",
        "ada"
      ],
      [
        "Ġc",
        "idad"
      ],
      [
        "Ġc",
        "ircuito"
      ],
      [
        "ar",
        "ÃŃt"
      ],
      [
        "Ġs",
        "abe"
      ],
      [
        "on",
        "de"
      ],
      [
        "as",
        "et"
      ],
      [
        "Ġt",
        "or"
      ],
      [
        "Ġt",
        "ec"
      ],
      [
        "Ġt",
        "ur"
      ],
      [
        "Ġt",
        "ot"
      ],
      [
        "Ġt",
        "rÃ¡s"
      ],
      [
        "Ġt",
        "rÃªs"
      ],
      [
        "ic",
        "e"
      ],
      [
        "ic",
        "lo"
      ],
      [
        "Ġo",
        "xidaÃ§Ã£o"
      ],
      [
        "Ġf",
        "i"
      ],
      [
        "Ġf",
        "ot"
      ],
      [
        "Ġf",
        "inal"
      ],
      [
        "Ġf",
        "ui"
      ],
      [
        "ci",
        "al"
      ],
      [
        "ci",
        "ado"
      ],
      [
        "Ġm",
        "ult"
      ],
      [
        "Ġm",
        "ud"
      ],
      [
        "Ġm",
        "uito"
      ],
      [
        "Ġm",
        "ostra"
      ],
      [
        "es",
        "s"
      ],
      [
        "Ġn",
        "ÃŃvel"
      ],
      [
        "Ġn",
        "um"
      ],
      [
        "en",
        "Ã§Ã£o"
      ],
      [
        "en",
        "oide"
      ],
      [
        "en",
        "cial"
      ],
      [
        "Ġre",
        "p"
      ],
      [
        "Ġre",
        "ais"
      ],
      [
        "Ġre",
        "tor"
      ],
      [
        "Ġre",
        "gressÃ£o"
      ],
      [
        "Ġre",
        "forÃ§o"
      ],
      [
        "em",
        "in"
      ],
      [
        "Ã¡",
        "s"
      ],
      [
        "an",
        "o"
      ],
      [
        "an",
        "s"
      ],
      [
        "an",
        "is"
      ],
      [
        "an",
        "ho"
      ],
      [
        "an",
        "Ã§as"
      ],
      [
        "le",
        "ma"
      ],
      [
        "le",
        "nto"
      ],
      [
        "ri",
        "o"
      ],
      [
        "la",
        "Ã§Ã£o"
      ],
      [
        "ica",
        "Ã§Ãµes"
      ],
      [
        "iv",
        "aÃ§Ã£o"
      ],
      [
        "ĠP",
        "osso"
      ],
      [
        "ÃŃ",
        "n"
      ],
      [
        "ÃŃ",
        "qu"
      ],
      [
        "Ġl",
        "iv"
      ],
      [
        "Ġl",
        "iga"
      ],
      [
        "Ġl",
        "Ã³gica"
      ],
      [
        "Ġl",
        "igaÃ§Ã£o"
      ],
      [
        "Ġl",
        "oss"
      ],
      [
        "Ġl",
        "iber"
      ],
      [
        "Ġl",
        "ÃŃqu"
      ],
      [
        "Ġmo",
        "mento"
      ],
      [
        "Ġmo",
        "to"
      ],
      [
        "Ġma",
        "nt"
      ],
      [
        "Ġma",
        "chine"
      ],
      [
        "ut",
        "Ã¡veis"
      ],
      [
        "Ġpro",
        "d"
      ],
      [
        "Ġme",
        "io"
      ],
      [
        "Ġme",
        "no"
      ],
      [
        "Ġme",
        "mÃ³"
      ],
      [
        "Ġb",
        "an"
      ],
      [
        "Ġb",
        "ai"
      ],
      [
        "Ġb",
        "omba"
      ],
      [
        "Ġb",
        "ibl"
      ],
      [
        "Ġ1",
        "5"
      ],
      [
        "Ġse",
        "i"
      ],
      [
        "Ġse",
        "quÃªncias"
      ],
      [
        "iz",
        "ar"
      ],
      [
        "iz",
        "ando"
      ],
      [
        "iz",
        "ada"
      ],
      [
        "ĠS",
        "empre"
      ],
      [
        "ĠS",
        "CADA"
      ],
      [
        "ist",
        "or"
      ],
      [
        "if",
        "icar"
      ],
      [
        "ec",
        "e"
      ],
      [
        "ol",
        "va"
      ],
      [
        "Ġg",
        "en"
      ],
      [
        "Ġg",
        "ente"
      ],
      [
        "Ġg",
        "ru"
      ],
      [
        "Ġg",
        "rÃ¡"
      ],
      [
        "Ġg",
        "anho"
      ],
      [
        "ĠExemp",
        "los"
      ],
      [
        "du",
        "Ã§Ã£o"
      ],
      [
        "ta",
        "m"
      ],
      [
        "Ġ2",
        "5"
      ],
      [
        "ĠM",
        "e"
      ],
      [
        "Ġno",
        "vos"
      ],
      [
        "ant",
        "es"
      ],
      [
        "ant",
        "ivo"
      ],
      [
        "Ġcont",
        "at"
      ],
      [
        "Ġcont",
        "Ã©m"
      ],
      [
        "Ġcont",
        "inu"
      ],
      [
        "io",
        "tec"
      ],
      [
        "Ġper",
        "iÃ³d"
      ],
      [
        "Ġcomp",
        "on"
      ],
      [
        "Ġcomp",
        "ut"
      ],
      [
        "Ġex",
        "ce"
      ],
      [
        "Ġex",
        "pres"
      ],
      [
        "Ġex",
        "pon"
      ],
      [
        "ot",
        "enu"
      ],
      [
        "ens",
        "Ãµes"
      ],
      [
        "ver",
        "fitting"
      ],
      [
        "ĠT",
        "ermo"
      ],
      [
        "Ġes",
        "co"
      ],
      [
        "Ġes",
        "fer"
      ],
      [
        "Ġat",
        "ivaÃ§Ã£o"
      ],
      [
        "Ġso",
        "u"
      ],
      [
        "Ġres",
        "ol"
      ],
      [
        "Ġres",
        "pon"
      ],
      [
        "ĠA",
        "rduino"
      ],
      [
        "ĠÃ¡",
        "cido"
      ],
      [
        "Ġvari",
        "ando"
      ],
      [
        "Ã©tr",
        "ico"
      ],
      [
        "orre",
        "tas"
      ],
      [
        "ĠR",
        "aspberry"
      ],
      [
        "ĠÃ",
        "ī"
      ],
      [
        "Ġtra",
        "z"
      ],
      [
        "bu",
        "lento"
      ],
      [
        "te",
        "za"
      ],
      [
        "Ġ3",
        "6"
      ],
      [
        "Ġpo",
        "is"
      ],
      [
        "Ġpo",
        "ntos"
      ],
      [
        "Ġinter",
        "ro"
      ],
      [
        "Ġal",
        "tas"
      ],
      [
        "Ġal",
        "tura"
      ],
      [
        "Ġdife",
        "rentes"
      ],
      [
        "ativ",
        "e"
      ],
      [
        "Ġdes",
        "vio"
      ],
      [
        "Ġdes",
        "cen"
      ],
      [
        "co",
        "ntrol"
      ],
      [
        "Ġpe",
        "lo"
      ],
      [
        "Ġquadr",
        "ado"
      ],
      [
        "Ġquadr",
        "Ã¡t"
      ],
      [
        "Ġcri",
        "a"
      ],
      [
        "Ġflu",
        "ido"
      ],
      [
        "Ġproces",
        "sa"
      ],
      [
        "Ġproces",
        "sar"
      ],
      [
        "no",
        "me"
      ],
      [
        "no",
        "log"
      ],
      [
        "Ġpadr",
        "on"
      ],
      [
        "Ġind",
        "ut"
      ],
      [
        "Ġan",
        "os"
      ],
      [
        "Ġan",
        "al"
      ],
      [
        "Ġas",
        "s"
      ],
      [
        "Ġas",
        "so"
      ],
      [
        "Ġcond",
        "iÃ§Ãµes"
      ],
      [
        "ĠÎ",
        "»"
      ],
      [
        "Ġprob",
        "lema"
      ],
      [
        "Ġintern",
        "et"
      ],
      [
        "mb",
        "da"
      ],
      [
        "Ġele",
        "mento"
      ],
      [
        "Ġpr",
        "ono"
      ],
      [
        "Ġpr",
        "incipal"
      ],
      [
        "Ġfo",
        "ntes"
      ],
      [
        "Ġapren",
        "do"
      ],
      [
        "Re",
        "aÃ§Ã£o"
      ],
      [
        "Re",
        "gressÃ£o"
      ],
      [
        "iment",
        "aÃ§Ã£o"
      ],
      [
        "Ġdiv",
        "ide"
      ],
      [
        "Ġser",
        "vo"
      ],
      [
        "Ġne",
        "ural"
      ],
      [
        "Ġdi",
        "mens"
      ],
      [
        "Ġreal",
        "imentaÃ§Ã£o"
      ],
      [
        "Ġcons",
        "ecut"
      ],
      [
        "ac",
        "kpro"
      ],
      [
        "Ġlog",
        "arÃŃt"
      ],
      [
        "arg",
        "s"
      ],
      [
        "icion",
        "a"
      ],
      [
        "Ġinc",
        "orretas"
      ],
      [
        "Ġmed",
        "ida"
      ],
      [
        "Ġtemperat",
        "uras"
      ],
      [
        "Ġcam",
        "adas"
      ],
      [
        "Ġprecis",
        "o"
      ],
      [
        "Ġsubst",
        "antivo"
      ],
      [
        "Ġorden",
        "ado"
      ],
      [
        "Ġorden",
        "ada"
      ],
      [
        "nd",
        "ice"
      ],
      [
        "Ġdef",
        "in"
      ],
      [
        "Ġret",
        "Ã¢ngulo"
      ],
      [
        "vit",
        "aÃ§Ã£o"
      ],
      [
        "ĠÃŃ",
        "ons"
      ],
      [
        "Ġsen",
        "Ã£o"
      ],
      [
        "Ġout",
        "ra"
      ],
      [
        "Ġinver",
        "sor"
      ],
      [
        "Ġposs",
        "ÃŃvel"
      ],
      [
        "Ġart",
        "igo"
      ],
      [
        "Ġhip",
        "Ã³tese"
      ],
      [
        "Ġobjet",
        "os"
      ],
      [
        "Ġlimit",
        "ado"
      ],
      [
        "Ġverdade",
        "ira"
      ],
      [
        "Ġdire",
        "ta"
      ],
      [
        "ĠQuantit",
        "ative"
      ],
      [
        "ĠmÃ©to",
        "dos"
      ],
      [
        "ĠmÃºltip",
        "los"
      ],
      [
        "Res",
        "olva"
      ],
      [
        "fic",
        "iÃªncia"
      ],
      [
        "lic",
        "ing"
      ],
      [
        "of",
        "f"
      ],
      [
        "of",
        "t"
      ],
      [
        "ĠW",
        "HER"
      ],
      [
        "Ġj",
        "son"
      ],
      [
        "Ġj",
        "uros"
      ],
      [
        "Ġab",
        "sol"
      ],
      [
        "Ġamb",
        "iente"
      ],
      [
        "Ġamb",
        "ientes"
      ],
      [
        "Ġpalav",
        "ra"
      ],
      [
        "Ġpalav",
        "ras"
      ],
      [
        "ĠparÃ¢",
        "metro"
      ],
      [
        "ĠparÃ¢",
        "metros"
      ],
      [
        "Ġmes",
        "ma"
      ],
      [
        "Ġmes",
        "mo"
      ],
      [
        "Ġbus",
        "ca"
      ],
      [
        "Ġ14",
        "4"
      ],
      [
        "ĠNe",
        "wton"
      ],
      [
        "Ġimpor",
        "t"
      ],
      [
        "Ġdesenvol",
        "ve"
      ],
      [
        "fa",
        "ce"
      ],
      [
        "ĠCom",
        "plexidade"
      ],
      [
        "Ġpl",
        "ural"
      ],
      [
        "Ġmin",
        "uto"
      ],
      [
        "Ġval",
        "ide"
      ],
      [
        "Ġcolun",
        "as"
      ],
      [
        "Ġperman",
        "ece"
      ],
      [
        "ĠÃ¡tom",
        "os"
      ],
      [
        "Ġarqu",
        "ivo"
      ],
      [
        "Ġtrabal",
        "ho"
      ],
      [
        "ĠespecÃŃf",
        "ico"
      ],
      [
        "Ġisol",
        "ado"
      ],
      [
        "gnÃ©t",
        "ico"
      ],
      [
        "Tra",
        "ns"
      ],
      [
        "pag",
        "ation"
      ],
      [
        "ub",
        "ble"
      ],
      [
        "ĠÃº",
        "n"
      ],
      [
        "Ġdat",
        "aset"
      ],
      [
        "Ġdig",
        "ital"
      ],
      [
        "Ġau",
        "ment"
      ],
      [
        "recis",
        "ion"
      ],
      [
        "Ġdetec",
        "ta"
      ],
      [
        "Ġcer",
        "teza"
      ],
      [
        "Ġcal",
        "cul"
      ],
      [
        "ĠcÃŃ",
        "rculo"
      ],
      [
        "Ġsol",
        "enoide"
      ],
      [
        "Ġtup",
        "la"
      ],
      [
        "Ġtermo",
        "par"
      ],
      [
        "Ġopos",
        "iÃ§Ã£o"
      ],
      [
        "Ġmicro",
        "control"
      ],
      [
        "Ġvaz",
        "Ã£o"
      ],
      [
        "Ġcombust",
        "Ã£o"
      ],
      [
        "Ġlit",
        "ros"
      ],
      [
        "ĠmecÃ¢n",
        "ica"
      ],
      [
        "Ġsent",
        "ido"
      ],
      [
        "Ġcompri",
        "mento"
      ],
      [
        "Ġatra",
        "vÃ©"
      ],
      [
        "ĠâĪļ",
        "("
      ],
      [
        "Apren",
        "dizado"
      ],
      [
        "ĠmÃ¡qu",
        "ina"
      ],
      [
        "Ġencont",
        "ra"
      ],
      [
        "neu",
        "mÃ¡t"
      ],
      [
        "oel",
        "Ã©trico"
      ],
      [
        "wor",
        "k"
      ],
      [
        "Ġdiagra",
        "ma"
      ],
      [
        "Ġaman",
        "hÃ£"
      ],
      [
        "Ġpac",
        "ot"
      ],
      [
        "Ġdema",
        "is"
      ],
      [
        "Ġcin",
        "Ã©tica"
      ],
      [
        "Ġtec",
        "nolog"
      ],
      [
        "Ġtur",
        "bulento"
      ],
      [
        "Ġtot",
        "al"
      ],
      [
        "Ġfot",
        "oelÃ©trico"
      ],
      [
        "Ġmud",
        "anÃ§as"
      ],
      [
        "Ġliber",
        "a"
      ],
      [
        "Ġmoto",
        "res"
      ],
      [
        "Ġmeno",
        "res"
      ],
      [
        "ĠmemÃ³",
        "ria"
      ],
      [
        "Ġbibl",
        "iotec"
      ],
      [
        "ĠgrÃ¡",
        "f"
      ],
      [
        "otenu",
        "sa"
      ],
      [
        "Ġesco",
        "amento"
      ],
      [
        "Ġesfer",
        "a"
      ],
      [
        "Ġdescen",
        "dente"
      ],
      [
        "Ġprono",
        "me"
      ],
      [
        "Ġconsecut",
        "ivos"
      ],
      [
        "ackpro",
        "pagation"
      ],
      [
        "ĠWHER",
        "E"
      ],
      [
        "ĠatravÃ©",
        "s"
      ],
      [
        "Ġbibliotec",
        "a"
      ],
      [
        "%",
        "."
      ],
      [
        "'",
        ","
      ],
      [
        "'",
        ":"
      ],
      [
        "(",
        ")"
      ],
      [
        "0",
        "2"
      ],
      [
        "1",
        "3"
      ],
      [
        "1",
        "5"
      ],
      [
        "1",
        "00"
      ],
      [
        "A",
        "rduino"
      ],
      [
        "B",
        "atch"
      ],
      [
        "C",
        "I"
      ],
      [
        "C",
        "l"
      ],
      [
        "C",
        "o"
      ],
      [
        "C",
        "orre"
      ],
      [
        "D",
        "es"
      ],
      [
        "D",
        "ist"
      ],
      [
        "E",
        "C"
      ],
      [
        "E",
        "L"
      ],
      [
        "E",
        "m"
      ],
      [
        "E",
        "n"
      ],
      [
        "E",
        "u"
      ],
      [
        "E",
        "ST"
      ],
      [
        "F",
        "D"
      ],
      [
        "F",
        "lo"
      ],
      [
        "F",
        "il"
      ],
      [
        "F",
        "lu"
      ],
      [
        "G",
        "H"
      ],
      [
        "G",
        "rad"
      ],
      [
        "H",
        "MI"
      ],
      [
        "I",
        "nd"
      ],
      [
        "I",
        "GH"
      ],
      [
        "L",
        "C"
      ],
      [
        "L",
        "im"
      ],
      [
        "M",
        "o"
      ],
      [
        "M",
        "at"
      ],
      [
        "M",
        "ol"
      ],
      [
        "M",
        "et"
      ],
      [
        "M",
        "odbus"
      ],
      [
        "M",
        "inha"
      ],
      [
        "M",
        "achine"
      ],
      [
        "N",
        "P"
      ],
      [
        "N",
        "Ãºmero"
      ],
      [
        "O",
        "M"
      ],
      [
        "P",
        "C"
      ],
      [
        "P",
        "T"
      ],
      [
        "P",
        "a"
      ],
      [
        "P",
        "ull"
      ],
      [
        "R",
        "OM"
      ],
      [
        "S",
        "H"
      ],
      [
        "S",
        "u"
      ],
      [
        "T",
        "en"
      ],
      [
        "V",
        "M"
      ],
      [
        "V",
        "Ã¡lvula"
      ],
      [
        "W",
        "M"
      ],
      [
        "a",
        "re"
      ],
      [
        "a",
        "res"
      ],
      [
        "b",
        "ica"
      ],
      [
        "b",
        "io"
      ],
      [
        "b",
        "Ã´"
      ],
      [
        "b",
        "utos"
      ],
      [
        "b",
        "aixa"
      ],
      [
        "c",
        "c"
      ],
      [
        "c",
        "om"
      ],
      [
        "c",
        "ri"
      ],
      [
        "c",
        "ol"
      ],
      [
        "c",
        "lar"
      ],
      [
        "c",
        "Ã³p"
      ],
      [
        "d",
        "x"
      ],
      [
        "d",
        "or"
      ],
      [
        "d",
        "ro"
      ],
      [
        "d",
        "Ãª"
      ],
      [
        "d",
        "ing"
      ],
      [
        "d",
        "iana"
      ],
      [
        "e",
        "g"
      ],
      [
        "e",
        "qu"
      ],
      [
        "e",
        "om"
      ],
      [
        "e",
        "fic"
      ],
      [
        "f",
        "f"
      ],
      [
        "f",
        "in"
      ],
      [
        "f",
        "let"
      ],
      [
        "f",
        "eito"
      ],
      [
        "f",
        "ismo"
      ],
      [
        "f",
        "ere"
      ],
      [
        "g",
        "r"
      ],
      [
        "g",
        "ad"
      ],
      [
        "g",
        "en"
      ],
      [
        "g",
        "ine"
      ],
      [
        "h",
        "ar"
      ],
      [
        "h",
        "ing"
      ],
      [
        "h",
        "aria"
      ]
    ]
  }
}